unsigned char model_float32_tflite[] = {
  0x1c, 0x00, 0x00, 0x00, 0x54, 0x46, 0x4c, 0x33, 0x14, 0x00, 0x20, 0x00,
  0x1c, 0x00, 0x18, 0x00, 0x14, 0x00, 0x10, 0x00, 0x0c, 0x00, 0x00, 0x00,
  0x08, 0x00, 0x04, 0x00, 0x14, 0x00, 0x00, 0x00, 0x1c, 0x00, 0x00, 0x00,
  0x94, 0x00, 0x00, 0x00, 0xec, 0x00, 0x00, 0x00, 0x34, 0x2f, 0x00, 0x00,
  0x44, 0x2f, 0x00, 0x00, 0x48, 0x36, 0x00, 0x00, 0x03, 0x00, 0x00, 0x00,
  0x01, 0x00, 0x00, 0x00, 0x04, 0x00, 0x00, 0x00, 0x7a, 0xd0, 0xff, 0xff,
  0x0c, 0x00, 0x00, 0x00, 0x1c, 0x00, 0x00, 0x00, 0x40, 0x00, 0x00, 0x00,
  0x0f, 0x00, 0x00, 0x00, 0x73, 0x65, 0x72, 0x76, 0x69, 0x6e, 0x67, 0x5f,
  0x64, 0x65, 0x66, 0x61, 0x75, 0x6c, 0x74, 0x00, 0x01, 0x00, 0x00, 0x00,
  0x04, 0x00, 0x00, 0x00, 0x88, 0xff, 0xff, 0xff, 0x0d, 0x00, 0x00, 0x00,
  0x04, 0x00, 0x00, 0x00, 0x0c, 0x00, 0x00, 0x00, 0x64, 0x65, 0x6e, 0x73,
  0x65, 0x5f, 0x44, 0x65, 0x6e, 0x73, 0x65, 0x34, 0x00, 0x00, 0x00, 0x00,
  0x01, 0x00, 0x00, 0x00, 0x04, 0x00, 0x00, 0x00, 0x92, 0xd1, 0xff, 0xff,
  0x04, 0x00, 0x00, 0x00, 0x12, 0x00, 0x00, 0x00, 0x64, 0x65, 0x6e, 0x73,
  0x65, 0x5f, 0x44, 0x65, 0x6e, 0x73, 0x65, 0x31, 0x5f, 0x69, 0x6e, 0x70,
  0x75, 0x74, 0x00, 0x00, 0x02, 0x00, 0x00, 0x00, 0x34, 0x00, 0x00, 0x00,
  0x04, 0x00, 0x00, 0x00, 0xdc, 0xff, 0xff, 0xff, 0x10, 0x00, 0x00, 0x00,
  0x04, 0x00, 0x00, 0x00, 0x13, 0x00, 0x00, 0x00, 0x43, 0x4f, 0x4e, 0x56,
  0x45, 0x52, 0x53, 0x49, 0x4f, 0x4e, 0x5f, 0x4d, 0x45, 0x54, 0x41, 0x44,
  0x41, 0x54, 0x41, 0x00, 0x08, 0x00, 0x0c, 0x00, 0x08, 0x00, 0x04, 0x00,
  0x08, 0x00, 0x00, 0x00, 0x0f, 0x00, 0x00, 0x00, 0x04, 0x00, 0x00, 0x00,
  0x13, 0x00, 0x00, 0x00, 0x6d, 0x69, 0x6e, 0x5f, 0x72, 0x75, 0x6e, 0x74,
  0x69, 0x6d, 0x65, 0x5f, 0x76, 0x65, 0x72, 0x73, 0x69, 0x6f, 0x6e, 0x00,
  0x11, 0x00, 0x00, 0x00, 0x44, 0x2e, 0x00, 0x00, 0x3c, 0x2e, 0x00, 0x00,
  0xec, 0x2d, 0x00, 0x00, 0xd4, 0x25, 0x00, 0x00, 0xc4, 0x05, 0x00, 0x00,
  0xb0, 0x05, 0x00, 0x00, 0x60, 0x05, 0x00, 0x00, 0xd0, 0x04, 0x00, 0x00,
  0xc0, 0x03, 0x00, 0x00, 0xb0, 0x00, 0x00, 0x00, 0xa8, 0x00, 0x00, 0x00,
  0xa0, 0x00, 0x00, 0x00, 0x98, 0x00, 0x00, 0x00, 0x90, 0x00, 0x00, 0x00,
  0x88, 0x00, 0x00, 0x00, 0x68, 0x00, 0x00, 0x00, 0x04, 0x00, 0x00, 0x00,
  0x56, 0xd2, 0xff, 0xff, 0x04, 0x00, 0x00, 0x00, 0x54, 0x00, 0x00, 0x00,
  0x0c, 0x00, 0x00, 0x00, 0x08, 0x00, 0x0e, 0x00, 0x08, 0x00, 0x04, 0x00,
  0x08, 0x00, 0x00, 0x00, 0x10, 0x00, 0x00, 0x00, 0x24, 0x00, 0x00, 0x00,
  0x00, 0x00, 0x06, 0x00, 0x08, 0x00, 0x04, 0x00, 0x06, 0x00, 0x00, 0x00,
  0x04, 0x00, 0x00, 0x00, 0x00, 0x00, 0x00, 0x00, 0x00, 0x00, 0x0a, 0x00,
  0x10, 0x00, 0x0c, 0x00, 0x08, 0x00, 0x04, 0x00, 0x0a, 0x00, 0x00, 0x00,
  0x02, 0x00, 0x00, 0x00, 0x02, 0x00, 0x00, 0x00, 0x04, 0x00, 0x00, 0x00,
  0x06, 0x00, 0x00, 0x00, 0x32, 0x2e, 0x31, 0x36, 0x2e, 0x31, 0x00, 0x00,
  0xb6, 0xd2, 0xff, 0xff, 0x04, 0x00, 0x00, 0x00, 0x10, 0x00, 0x00, 0x00,
  0x31, 0x2e, 0x31, 0x34, 0x2e, 0x30, 0x00, 0x00, 0x00, 0x00, 0x00, 0x00,
  0x00, 0x00, 0x00, 0x00, 0x9c, 0xcb, 0xff, 0xff, 0xa0, 0xcb, 0xff, 0xff,
  0xa4, 0xcb, 0xff, 0xff, 0xa8, 0xcb, 0xff, 0xff, 0xac, 0xcb, 0xff, 0xff,
  0xe6, 0xd2, 0xff, 0xff, 0x04, 0x00, 0x00, 0x00, 0x00, 0x03, 0x00, 0x00,
  0xde, 0xd7, 0x6e, 0x3e, 0x59, 0x8f, 0x02, 0xbf, 0x75, 0xa9, 0x38, 0x3f,
  0x0c, 0xa1, 0x52, 0x3e, 0xde, 0xe1, 0x9b, 0x3e, 0x30, 0x1d, 0x10, 0x3f,
  0x9c, 0x0f, 0x74, 0x3e, 0x9d, 0xb6, 0xd0, 0xbe, 0x8b, 0x10, 0x89, 0xbf,
  0xaa, 0xc7, 0xb3, 0xbe, 0xd9, 0x13, 0x8b, 0xbe, 0xf7, 0x29, 0x3a, 0xbd,
  0x1e, 0x07, 0xe6, 0x3d, 0xf1, 0x23, 0x18, 0xbf, 0xca, 0x6f, 0x61, 0xbc,
  0xaf, 0x2c, 0x85, 0x3a, 0x45, 0x82, 0x89, 0xbd, 0xb5, 0x39, 0xfa, 0xbc,
  0x50, 0x35, 0x4c, 0x3f, 0x2d, 0x1e, 0xa9, 0xbd, 0x9a, 0xbf, 0x38, 0xbf,
  0x4c, 0x3a, 0x78, 0x3e, 0x7d, 0xfa, 0x74, 0xbe, 0xa0, 0x16, 0xc0, 0xbe,
  0xcd, 0xad, 0x68, 0x3e, 0x60, 0x14, 0x46, 0x3e, 0xb3, 0x8a, 0x1e, 0x3f,
  0xa3, 0x0b, 0xb8, 0xbe, 0x79, 0x57, 0x31, 0xbe, 0x7e, 0x39, 0xb7, 0xbd,
  0x08, 0xf8, 0xb1, 0xbf, 0x0e, 0x76, 0xa6, 0x3d, 0xe9, 0xe1, 0xf2, 0xbd,
  0x57, 0xbf, 0xea, 0x3e, 0xda, 0x40, 0x8c, 0xbe, 0x83, 0xda, 0xf3, 0xbe,
  0x0a, 0xe2, 0x44, 0xbe, 0xb0, 0x2d, 0x47, 0xbe, 0xbe, 0x71, 0x16, 0x3d,
  0x25, 0xc9, 0xf0, 0x3e, 0xa1, 0xd8, 0x47, 0xbe, 0x93, 0x9f, 0x22, 0xbf,
  0xd3, 0x2f, 0x4f, 0x3e, 0xd9, 0x8b, 0x0f, 0x3d, 0x30, 0xc1, 0x45, 0x3d,
  0xdc, 0x65, 0x02, 0xbf, 0x19, 0x59, 0x21, 0xbe, 0xfc, 0x2d, 0x41, 0x3e,
  0x3c, 0x34, 0xd8, 0xbe, 0x9c, 0x4e, 0xf5, 0x3e, 0xab, 0x45, 0x49, 0xbe,
  0x65, 0xde, 0xd7, 0xbb, 0xea, 0xe9, 0x97, 0xbc, 0x7f, 0xec, 0x92, 0xbb,
  0x08, 0x56, 0x24, 0x3f, 0x0e, 0xee, 0x87, 0x3e, 0x65, 0x84, 0xfb, 0x3d,
  0x9d, 0xe6, 0x4c, 0x3f, 0xc7, 0x25, 0xee, 0x3c, 0x4d, 0xa4, 0x9e, 0x3e,
  0x83, 0x90, 0xbc, 0x3b, 0xdb, 0x0b, 0x1a, 0xbf, 0x60, 0xf4, 0x56, 0x3f,
  0x9c, 0x45, 0xa4, 0x3e, 0xe8, 0x5b, 0x12, 0xbe, 0x51, 0xfd, 0x8c, 0xbf,
  0x6e, 0x33, 0x4b, 0x3e, 0x86, 0xc6, 0xe5, 0x3e, 0x2d, 0x71, 0x38, 0x3e,
  0x48, 0x07, 0x17, 0xbf, 0x35, 0xb6, 0x1c, 0xbe, 0x47, 0x85, 0x34, 0xbe,
  0x42, 0xe9, 0xc4, 0xbd, 0xe6, 0x6a, 0x5c, 0xbe, 0xbb, 0xb3, 0x39, 0x3e,
  0x63, 0x63, 0x22, 0xbe, 0x58, 0x13, 0x3e, 0x3d, 0x79, 0x89, 0x94, 0xbd,
  0xb9, 0x6b, 0x83, 0xbf, 0x4f, 0x1f, 0xc4, 0x3c, 0x0b, 0xc2, 0x90, 0x3e,
  0x11, 0x0c, 0x88, 0x3e, 0x7c, 0x43, 0x20, 0xbf, 0xcf, 0x34, 0xb6, 0x3e,
  0xbc, 0xda, 0xcf, 0xbe, 0x84, 0x02, 0x24, 0x3c, 0x8c, 0x4d, 0x23, 0xbf,
  0x5c, 0x4e, 0xd1, 0x3e, 0xf7, 0x7c, 0x93, 0xbe, 0x27, 0x1f, 0x92, 0xbf,
  0xfd, 0x47, 0x3d, 0x3f, 0x59, 0x73, 0x95, 0x3e, 0x17, 0x23, 0x49, 0x3e,
  0x55, 0x30, 0x8d, 0x3e, 0xbc, 0xe2, 0x07, 0xbf, 0xca, 0xd0, 0x45, 0x3f,
  0x80, 0xac, 0xc8, 0x3e, 0x92, 0xa6, 0xa8, 0xbe, 0x03, 0x14, 0x91, 0xbf,
  0xba, 0x61, 0x27, 0xbf, 0xde, 0xc0, 0x05, 0xbf, 0x10, 0xb3, 0x0d, 0xbf,
  0x00, 0xdd, 0xdf, 0x3e, 0x83, 0x0d, 0xba, 0x3e, 0x65, 0xae, 0xe2, 0xbd,
  0x00, 0x3d, 0x85, 0x3e, 0x15, 0x24, 0x0d, 0xbf, 0xea, 0xb7, 0x45, 0x3f,
  0x83, 0x8e, 0xe1, 0x3d, 0x8e, 0xb6, 0x02, 0xbf, 0x96, 0x5b, 0x08, 0x3e,
  0x4d, 0x79, 0xe2, 0xbe, 0xba, 0x3f, 0x0c, 0xbf, 0x67, 0x93, 0x4a, 0xbe,
  0xaa, 0x73, 0x39, 0x3e, 0xb4, 0x02, 0x0b, 0x3e, 0x34, 0xd8, 0x4a, 0x3d,
  0x49, 0x50, 0x48, 0xbf, 0x5f, 0x2b, 0xc0, 0xbe, 0x54, 0xf5, 0xb3, 0xbe,
  0x25, 0xcc, 0x00, 0x3f, 0xa5, 0xd1, 0x62, 0x3e, 0x78, 0x83, 0xd6, 0x3e,
  0x05, 0x7d, 0x67, 0xbf, 0x17, 0x37, 0x42, 0x3e, 0x94, 0xd7, 0x2c, 0x3f,
  0x3e, 0x28, 0xc4, 0x3d, 0x5f, 0x8a, 0x5a, 0xbe, 0x65, 0x7d, 0x19, 0xbf,
  0x4f, 0xad, 0xb4, 0x3e, 0x7c, 0x0d, 0xb5, 0xbe, 0xca, 0xb5, 0xe8, 0xbd,
  0x96, 0xb0, 0xc5, 0x3e, 0xa3, 0xe7, 0xcc, 0xbe, 0x11, 0x4c, 0x43, 0xbe,
  0xc0, 0x4c, 0x62, 0xbe, 0xd8, 0x84, 0xa7, 0x3e, 0x11, 0x3e, 0xe7, 0xbe,
  0x91, 0xdd, 0xee, 0xbd, 0x8d, 0xdf, 0x6d, 0xbe, 0x86, 0x3e, 0xc2, 0xbe,
  0x1e, 0xf9, 0x11, 0x3e, 0x87, 0xe4, 0xb1, 0xbd, 0xae, 0xb0, 0x2f, 0x3f,
  0x69, 0x21, 0x56, 0x3c, 0xa4, 0xc0, 0xaf, 0xbc, 0xd4, 0x7d, 0x6d, 0x3b,
  0xa0, 0x17, 0x18, 0x3e, 0x86, 0x3c, 0xc2, 0x3e, 0xe8, 0xe1, 0x3b, 0xbf,
  0x58, 0x43, 0x88, 0xbf, 0x8a, 0x54, 0x97, 0xbe, 0xd5, 0xb8, 0xa2, 0x3e,
  0x5d, 0x0a, 0x11, 0xbf, 0x80, 0xb2, 0x60, 0x3e, 0x6b, 0xc4, 0xf2, 0x3e,
  0x16, 0xf2, 0xa6, 0xbd, 0xe5, 0x51, 0xad, 0xbe, 0x88, 0xcd, 0xfa, 0x3e,
  0x32, 0x74, 0xba, 0xbe, 0x26, 0xa3, 0x2b, 0xbe, 0xf6, 0x3d, 0x1d, 0xbe,
  0xf4, 0xdd, 0x6a, 0xbe, 0xa6, 0x28, 0xc9, 0x3e, 0x7f, 0x22, 0xee, 0x3e,
  0x9b, 0xdf, 0x5c, 0xbf, 0x7d, 0x77, 0x48, 0x3e, 0xcc, 0x57, 0x35, 0x3f,
  0x70, 0x19, 0xa0, 0xbe, 0xc5, 0x77, 0x00, 0xbf, 0x19, 0x6c, 0x05, 0xbe,
  0x25, 0x42, 0xc8, 0x3e, 0xc7, 0x33, 0x1b, 0xbf, 0xc6, 0xcc, 0x80, 0x3e,
  0x30, 0x12, 0xb9, 0xbd, 0x35, 0xf3, 0xea, 0xbe, 0x1c, 0x9f, 0xe9, 0xbe,
  0x8a, 0x5f, 0xde, 0xbe, 0x9c, 0xd0, 0x27, 0xbf, 0x3d, 0x66, 0x4e, 0xbe,
  0xa7, 0xd4, 0x41, 0xbf, 0xa3, 0x9d, 0xa0, 0xbe, 0xf2, 0x69, 0x75, 0xbe,
  0xf9, 0xc9, 0x0c, 0x3d, 0xdb, 0x34, 0xd9, 0x3e, 0x80, 0x07, 0x05, 0xbf,
  0x51, 0x4f, 0xc2, 0xbe, 0x6c, 0x45, 0x7b, 0x3e, 0x33, 0xd3, 0xda, 0x3e,
  0xbc, 0xf8, 0x4f, 0x3f, 0x0e, 0x5b, 0x3d, 0x3c, 0x4b, 0x1b, 0x56, 0xbf,
  0xf2, 0xd5, 0xff, 0xff, 0x04, 0x00, 0x00, 0x00, 0x00, 0x01, 0x00, 0x00,
  0x33, 0xa0, 0x3b, 0xbd, 0x0c, 0xef, 0xda, 0xbe, 0x3e, 0x87, 0x4e, 0x3e,
  0x26, 0x2d, 0x48, 0x3c, 0x2c, 0x93, 0x10, 0x3f, 0x97, 0x01, 0xdc, 0xbd,
  0x0c, 0x16, 0x38, 0xbd, 0xea, 0x60, 0x63, 0x3d, 0x7f, 0x12, 0xa4, 0xbe,
  0xc2, 0x1f, 0x6b, 0xbc, 0x64, 0x77, 0x11, 0xbe, 0x2e, 0xb6, 0x96, 0x3e,
  0xeb, 0x5e, 0xf9, 0x3a, 0x3e, 0x85, 0xad, 0xbd, 0x8e, 0x30, 0xad, 0xbe,
  0x2e, 0xf8, 0x15, 0xbe, 0x3a, 0x2a, 0x09, 0xbf, 0xc4, 0xa8, 0x4d, 0xbd,
  0x40, 0x00, 0xe3, 0xbe, 0xa5, 0xcd, 0x94, 0xbe, 0xa2, 0x2f, 0x09, 0x3e,
  0x1e, 0x1b, 0x65, 0x3b, 0xbd, 0x2e, 0x1f, 0xbf, 0x34, 0x9f, 0x0e, 0xbe,
  0xe2, 0xc8, 0x7a, 0x3e, 0x34, 0x19, 0x5b, 0xbe, 0xa5, 0x20, 0xbb, 0xbe,
  0x76, 0x26, 0x38, 0x3e, 0xdf, 0x3b, 0xc2, 0x3c, 0x1f, 0x98, 0xd0, 0xbd,
  0x6c, 0xa9, 0x02, 0xbf, 0xb3, 0x3f, 0x53, 0xbd, 0x90, 0xdd, 0x3d, 0xbc,
  0xfa, 0x49, 0xfc, 0x3e, 0x76, 0x67, 0x13, 0xbf, 0x6f, 0xbb, 0x2f, 0xbd,
  0x54, 0x59, 0x4a, 0x3e, 0x46, 0x6e, 0x96, 0x3e, 0xc3, 0xf0, 0xd3, 0xbe,
  0x3a, 0xa3, 0xe9, 0x3d, 0x88, 0xbc, 0x0e, 0xbf, 0x8f, 0xd0, 0xba, 0xbe,
  0x16, 0x26, 0x58, 0xbc, 0x6f, 0x6d, 0x50, 0x3d, 0xf2, 0x1c, 0xcd, 0x3e,
  0x78, 0xec, 0x49, 0xbe, 0x6d, 0xe0, 0xa8, 0x3c, 0x4c, 0x88, 0xbb, 0xbe,
  0xab, 0x5c, 0x3d, 0xbd, 0x97, 0xf7, 0xa5, 0xbe, 0xa8, 0xcd, 0x26, 0xbe,
  0x12, 0x13, 0xf1, 0xbe, 0xed, 0x88, 0x25, 0xbd, 0x60, 0x71, 0xcb, 0xbb,
  0x27, 0x44, 0xc7, 0xbe, 0x35, 0xa8, 0xcb, 0xbe, 0x18, 0xac, 0xe2, 0x3e,
  0xb5, 0x1c, 0xf8, 0x3e, 0xfd, 0x86, 0xfd, 0x3e, 0x46, 0x9d, 0xa2, 0x3e,
  0xb7, 0x1e, 0xff, 0xbc, 0x76, 0xb1, 0x3c, 0xbf, 0xeb, 0xfd, 0x85, 0xbe,
  0x33, 0x7f, 0xb7, 0xbe, 0xfe, 0xd6, 0xff, 0xff, 0x04, 0x00, 0x00, 0x00,
  0x80, 0x00, 0x00, 0x00, 0x1b, 0xed, 0xff, 0x3d, 0x13, 0x25, 0x13, 0xbf,
  0xf9, 0x68, 0x2b, 0xbe, 0x5e, 0xb1, 0xa7, 0x3e, 0xc2, 0x8b, 0xa2, 0xbe,
  0xba, 0x6a, 0x0c, 0x3f, 0x69, 0xbf, 0x19, 0xbf, 0x5b, 0xb2, 0x22, 0xbf,
  0x76, 0x94, 0xb1, 0x3e, 0xf3, 0x42, 0x04, 0x3f, 0xf7, 0xb8, 0x3f, 0xbd,
  0xbd, 0x6e, 0x0c, 0x3f, 0xc0, 0x73, 0x3b, 0x3f, 0xec, 0x9d, 0x21, 0x3f,
  0xed, 0x9b, 0x96, 0xbf, 0x10, 0x57, 0xd6, 0x3e, 0x2f, 0x3b, 0x0c, 0x3f,
  0x86, 0xb1, 0x44, 0xbf, 0xc2, 0x45, 0x95, 0xbd, 0x92, 0xdc, 0x6c, 0xbe,
  0xcc, 0x6c, 0xea, 0xbc, 0xb0, 0x95, 0xe4, 0xbe, 0x62, 0x06, 0xbf, 0xbd,
  0x41, 0xd9, 0x75, 0xbe, 0x65, 0x4f, 0x15, 0xbf, 0x22, 0xab, 0x63, 0xbe,
  0x22, 0xc6, 0xf5, 0x3e, 0xf4, 0xfa, 0x5d, 0xbf, 0xfb, 0x03, 0xdd, 0xbd,
  0xd8, 0x4f, 0xbf, 0xbd, 0xd3, 0xda, 0x8f, 0x3e, 0x4b, 0x99, 0x67, 0xbf,
  0x8a, 0xd7, 0xff, 0xff, 0x04, 0x00, 0x00, 0x00, 0x40, 0x00, 0x00, 0x00,
  0xd7, 0xe9, 0xa8, 0xbd, 0x83, 0xcb, 0xc6, 0x3e, 0x59, 0x66, 0x92, 0xbe,
  0xef, 0xec, 0x05, 0x3d, 0x1b, 0x41, 0xac, 0x3d, 0x36, 0x74, 0x12, 0xbe,
  0x10, 0xd5, 0xa7, 0x3e, 0x29, 0x54, 0x11, 0xbd, 0x5a, 0xe1, 0x06, 0xbe,
  0x16, 0xc2, 0x24, 0xbf, 0xaf, 0xbf, 0x0c, 0xbe, 0xf9, 0xd3, 0xf0, 0xbc,
  0x0e, 0x97, 0xd9, 0x3e, 0x7e, 0xde, 0x46, 0xbf, 0xd6, 0x43, 0x8c, 0xbe,
  0xb1, 0xbb, 0x33, 0xbf, 0xd6, 0xd7, 0xff, 0xff, 0x04, 0x00, 0x00, 0x00,
  0x04, 0x00, 0x00, 0x00, 0xaa, 0x4a, 0xa9, 0xbe, 0xe6, 0xd7, 0xff, 0xff,
  0x04, 0x00, 0x00, 0x00, 0x00, 0x20, 0x00, 0x00, 0xf5, 0xa9, 0x02, 0x3d,
  0x81, 0x27, 0x2c, 0xbf, 0xf6, 0x04, 0x7a, 0x3e, 0x1e, 0xb9, 0xee, 0x3e,
  0x1b, 0xea, 0xb7, 0xbf, 0xc6, 0xec, 0x80, 0x3d, 0xdd, 0x4a, 0x09, 0x3e,
  0xda, 0xb8, 0x38, 0x3e, 0xfc, 0x6e, 0x1e, 0xbf, 0x02, 0xe5, 0xd8, 0x3d,
  0x5b, 0x70, 0x46, 0xbe, 0xfa, 0xe9, 0xcf, 0x3e, 0xd6, 0x8a, 0x02, 0x3f,
  0x7c, 0xb2, 0x2d, 0x3e, 0xd6, 0x93, 0x0c, 0x3f, 0xac, 0x30, 0x93, 0x3e,
  0x44, 0xae, 0xf8, 0xbe, 0xf8, 0x4d, 0x06, 0xbd, 0x86, 0xd7, 0x82, 0xbf,
  0xea, 0x36, 0xc1, 0xbd, 0x90, 0x0a, 0x99, 0x3e, 0x79, 0x9a, 0x68, 0x3e,
  0xc3, 0x7d, 0x87, 0xbf, 0xe2, 0x84, 0xc0, 0x3e, 0x9b, 0x81, 0xfe, 0xbe,
  0x3e, 0x8e, 0xe1, 0x3e, 0x58, 0xbc, 0xd1, 0x3d, 0x4c, 0xda, 0xfb, 0x3d,
  0xea, 0x55, 0x81, 0x3e, 0x4b, 0xa3, 0xbc, 0xbd, 0xc9, 0xc8, 0x51, 0xbf,
  0x2c, 0xe5, 0x27, 0x3d, 0xc1, 0x5e, 0xbf, 0xbd, 0xd9, 0xe7, 0xc3, 0xbf,
  0xd1, 0xd9, 0xe7, 0xbf, 0x31, 0x9f, 0x0c, 0xbe, 0x4d, 0xf5, 0x0d, 0xbf,
  0x44, 0x58, 0x6e, 0xbf, 0x5e, 0x80, 0x6a, 0x3f, 0x2b, 0x57, 0x73, 0x3f,
  0x32, 0xf8, 0x56, 0x3f, 0xc3, 0x47, 0x70, 0xbe, 0x83, 0x30, 0xfe, 0x3c,
  0xe4, 0xaf, 0xd8, 0xbe, 0x31, 0x40, 0x6b, 0x3e, 0x9c, 0x7f, 0x0d, 0x3e,
  0x5a, 0x6e, 0x25, 0xbf, 0x21, 0xed, 0xa8, 0xbe, 0x70, 0xb1, 0xbb, 0xbd,
  0x86, 0x08, 0x89, 0xbd, 0x93, 0xb2, 0x93, 0x3c, 0xc2, 0xb6, 0x6d, 0xbe,
  0x91, 0x5a, 0xf8, 0x3e, 0x4a, 0x85, 0xa6, 0x3e, 0x51, 0x44, 0xcc, 0xbe,
  0x76, 0xcb, 0x6f, 0xbf, 0x62, 0x1c, 0x99, 0xbf, 0x93, 0x6e, 0xcc, 0xbf,
  0x11, 0x16, 0xa3, 0x3e, 0x8c, 0xe2, 0x73, 0xbf, 0xa9, 0x3a, 0x9d, 0x3e,
  0xa7, 0xb7, 0x86, 0x3f, 0x59, 0xd0, 0x85, 0x3e, 0x02, 0x24, 0x34, 0x3e,
  0xac, 0xaa, 0x9f, 0x3f, 0xa9, 0x68, 0x47, 0x3e, 0x83, 0x4a, 0x91, 0x3e,
  0xe4, 0xed, 0xa8, 0x3e, 0x93, 0x74, 0xd5, 0x3e, 0xef, 0x90, 0xf2, 0xbd,
  0x8c, 0x6c, 0x49, 0x3e, 0x1d, 0x17, 0x43, 0x3e, 0xba, 0x66, 0xc5, 0xbd,
  0xf3, 0x12, 0x15, 0x3f, 0xb3, 0x98, 0xe5, 0xbe, 0xb3, 0xe2, 0x12, 0xbd,
  0x31, 0x04, 0x88, 0x3f, 0x7f, 0x0e, 0x44, 0x3f, 0xba, 0xd7, 0x05, 0x3f,
  0x5e, 0xec, 0x43, 0x3f, 0xde, 0x54, 0x5d, 0x3e, 0x4c, 0x30, 0x75, 0x3d,
  0x5c, 0xdb, 0x37, 0x3f, 0x68, 0x8a, 0xbf, 0x3d, 0x41, 0xe3, 0x46, 0x3f,
  0xbd, 0x64, 0x34, 0xbe, 0x46, 0x25, 0x4a, 0x3f, 0xa9, 0x38, 0x58, 0x3f,
  0x30, 0x1b, 0xf4, 0xbd, 0xc8, 0x0e, 0xf3, 0x3d, 0x58, 0x1f, 0xb9, 0x3f,
  0xd6, 0x1b, 0xc2, 0x3f, 0x6e, 0xf7, 0x59, 0x3e, 0xe0, 0xdd, 0x95, 0x3f,
  0x34, 0x1f, 0xcb, 0x3e, 0x21, 0xc7, 0xc2, 0x3f, 0xdd, 0x17, 0x97, 0x3f,
  0x3a, 0xa5, 0xfb, 0x3e, 0x8d, 0xd1, 0x68, 0x3f, 0xca, 0x39, 0xce, 0x3f,
  0x17, 0x9d, 0x58, 0x3f, 0xed, 0xfc, 0x16, 0x40, 0x28, 0x20, 0xdd, 0x3e,
  0x4a, 0xc7, 0xc4, 0x3f, 0x49, 0xd9, 0x61, 0x3f, 0x95, 0x38, 0x32, 0x3c,
  0x02, 0xfc, 0xe7, 0x3f, 0x19, 0x3b, 0xb1, 0x3e, 0x81, 0xae, 0xed, 0xbe,
  0x96, 0x6b, 0x39, 0x3e, 0x24, 0x81, 0x8b, 0x3f, 0xd0, 0x81, 0x00, 0x3f,
  0xa6, 0xfc, 0x1d, 0xbe, 0xaf, 0x4c, 0xd9, 0xbb, 0x7a, 0x5b, 0x14, 0x3f,
  0x21, 0xf4, 0xe2, 0xbe, 0x4a, 0x67, 0xb9, 0x3f, 0x64, 0x7a, 0x86, 0x3e,
  0xb2, 0x14, 0xae, 0x3d, 0x3e, 0xf3, 0xe9, 0x3c, 0xa2, 0xee, 0xeb, 0x3e,
  0x57, 0x47, 0xaf, 0xbf, 0xd0, 0x4c, 0x06, 0x3f, 0x21, 0xe0, 0x33, 0x40,
  0xd0, 0x22, 0xb4, 0x3f, 0x63, 0x51, 0x53, 0x3f, 0xf7, 0xe2, 0xa2, 0xbe,
  0xcd, 0xf5, 0xd6, 0x3e, 0x9d, 0x92, 0x88, 0x3f, 0x76, 0x9f, 0x04, 0x3f,
  0xae, 0x98, 0xb7, 0xbf, 0x14, 0x0c, 0x62, 0x3e, 0x73, 0xdb, 0x4b, 0x3f,
  0x05, 0x31, 0x57, 0xbd, 0x5c, 0xde, 0x04, 0xc0, 0x8e, 0x91, 0x48, 0x3f,
  0x0c, 0x9d, 0xeb, 0x3e, 0xe6, 0x4d, 0xc4, 0x3e, 0x16, 0xea, 0xb4, 0x3c,
  0x2b, 0x8c, 0x91, 0xbf, 0xde, 0x1e, 0x38, 0x3e, 0x08, 0x86, 0x13, 0x3f,
  0x26, 0x0c, 0x8e, 0x3c, 0x3f, 0x5d, 0xef, 0x3d, 0x99, 0xf9, 0xa3, 0xbf,
  0x17, 0x35, 0xd1, 0xbd, 0x0f, 0xa1, 0x99, 0x3e, 0x45, 0xc0, 0xdc, 0xbd,
  0xa6, 0xae, 0x63, 0x3f, 0x0a, 0xd0, 0x58, 0xc0, 0xcf, 0x29, 0x69, 0xbe,
  0x7f, 0x8e, 0xae, 0x3e, 0x65, 0xc8, 0x95, 0x3e, 0xc9, 0x50, 0x8d, 0xbd,
  0x17, 0xc4, 0x29, 0x3f, 0x19, 0x65, 0xd9, 0x3f, 0xe2, 0xd5, 0x71, 0xbe,
  0xd1, 0xe2, 0xa6, 0x40, 0xb8, 0x0b, 0x55, 0x3e, 0x40, 0x80, 0xaf, 0x3f,
  0x1e, 0x97, 0x6d, 0x40, 0xe4, 0x0e, 0x6a, 0x3f, 0x5e, 0xbb, 0x08, 0x3e,
  0xcc, 0xac, 0xa5, 0x3f, 0x85, 0x2d, 0x39, 0x3f, 0xa1, 0x56, 0xd4, 0x3f,
  0x66, 0xc6, 0x45, 0xbd, 0x5b, 0x74, 0x23, 0x3f, 0x0e, 0x33, 0xa5, 0x3d,
  0x4f, 0xf9, 0x11, 0xbf, 0x3a, 0x8d, 0x84, 0x40, 0x80, 0xc3, 0x32, 0xbd,
  0xaf, 0xbb, 0xe3, 0xbd, 0xa3, 0x23, 0x30, 0xbf, 0x47, 0x2e, 0x21, 0x3f,
  0x77, 0x5f, 0x2c, 0x3f, 0x3a, 0x84, 0x9e, 0xbc, 0x7c, 0xf0, 0x5e, 0xc0,
  0xef, 0x74, 0x44, 0x3e, 0x54, 0x56, 0x97, 0x3e, 0xf1, 0x52, 0x90, 0x3e,
  0x7f, 0x8a, 0x0b, 0x3e, 0x8d, 0x47, 0x01, 0xbf, 0x80, 0x5b, 0x10, 0xbf,
  0x1b, 0x16, 0x32, 0x3f, 0xb5, 0xc5, 0xe6, 0x3e, 0xf7, 0xed, 0x66, 0x3f,
  0xe8, 0x30, 0xea, 0x3f, 0x32, 0x8a, 0x0d, 0x3f, 0x8a, 0x86, 0xbb, 0x40,
  0x7e, 0x45, 0xc7, 0xbe, 0x86, 0x1a, 0xb8, 0x3e, 0xbb, 0x1c, 0xbe, 0xbe,
  0xb0, 0xfb, 0x90, 0xbe, 0x4f, 0xf2, 0x2d, 0xbf, 0x9b, 0xf3, 0x9b, 0x3d,
  0x4d, 0x8c, 0x20, 0xbf, 0x01, 0xa7, 0xde, 0x3c, 0x38, 0x9f, 0x76, 0xbe,
  0x75, 0x99, 0x0a, 0xbf, 0xc1, 0xbd, 0x91, 0xbe, 0x96, 0xb9, 0xfb, 0x3e,
  0xaf, 0xe6, 0x32, 0xbe, 0x94, 0x2f, 0xe3, 0x3e, 0x04, 0x45, 0xd4, 0x3e,
  0x3d, 0x54, 0xa4, 0x3d, 0x9c, 0x20, 0x9f, 0x3e, 0x03, 0x11, 0xff, 0x3e,
  0xcc, 0x18, 0x40, 0x3e, 0x10, 0x66, 0xd3, 0xbd, 0x2e, 0xca, 0xdb, 0xbe,
  0xf1, 0x34, 0xe7, 0x3e, 0xf0, 0x94, 0x24, 0xbe, 0xa0, 0xdc, 0x20, 0x3e,
  0xc6, 0xfe, 0xe1, 0xbe, 0x45, 0xe8, 0x69, 0xbd, 0xe5, 0xdc, 0xf6, 0xbd,
  0x57, 0xa7, 0x84, 0x3e, 0x4b, 0x0b, 0xb6, 0xbe, 0x52, 0xb6, 0xa4, 0xbf,
  0xae, 0xa9, 0xf9, 0xbd, 0x5a, 0x7a, 0xfe, 0xbe, 0xa0, 0x75, 0xd2, 0xbe,
  0x1d, 0x4a, 0x2e, 0xbf, 0x12, 0x12, 0x02, 0xbf, 0x88, 0x34, 0xa3, 0xbf,
  0x08, 0x9b, 0x9f, 0xbe, 0x3f, 0x22, 0x61, 0xbf, 0x97, 0xca, 0xc6, 0xbe,
  0x62, 0x57, 0xd8, 0xbf, 0xa6, 0x6b, 0x79, 0xbe, 0x39, 0x32, 0xd3, 0xbc,
  0xb1, 0x7e, 0xee, 0xbe, 0xd1, 0x1f, 0x99, 0xbe, 0xca, 0x48, 0x34, 0x3f,
  0xc7, 0x1f, 0x27, 0xbd, 0x0f, 0xc9, 0xa2, 0x3e, 0x5a, 0x7f, 0x72, 0x3e,
  0x7c, 0x92, 0x94, 0xbe, 0xb9, 0x91, 0x1c, 0xbe, 0xa0, 0x08, 0x1a, 0xbd,
  0x56, 0x90, 0x5e, 0xbe, 0x69, 0x94, 0x26, 0x3f, 0x14, 0x7d, 0xde, 0xbe,
  0xd4, 0x53, 0x26, 0x3b, 0x19, 0xfa, 0x5b, 0x3e, 0xe4, 0x30, 0xfb, 0x3d,
  0xdf, 0x4c, 0x94, 0xbe, 0x0d, 0x2e, 0xf3, 0x3d, 0xa0, 0x04, 0x73, 0x3e,
  0x60, 0x11, 0x62, 0xbf, 0x97, 0x8c, 0x0d, 0xc0, 0x9e, 0x62, 0xfa, 0xbd,
  0x11, 0x60, 0xf5, 0x3f, 0xa6, 0x04, 0xfa, 0x3d, 0x58, 0x0b, 0xe7, 0xbe,
  0x9d, 0xfa, 0x2e, 0xbf, 0x39, 0xc4, 0x63, 0x3e, 0xec, 0xf8, 0x16, 0x3f,
  0x8c, 0x2f, 0x68, 0x3c, 0xc0, 0xb1, 0x4c, 0x3e, 0x83, 0xf0, 0x13, 0x3d,
  0x93, 0x49, 0x5c, 0xbe, 0xda, 0xf8, 0xf5, 0xbc, 0x0c, 0xfd, 0x79, 0x3e,
  0x9d, 0x59, 0x10, 0x3e, 0xfd, 0x54, 0x91, 0xbb, 0x9a, 0x90, 0x42, 0x3e,
  0x70, 0xa0, 0x65, 0xbe, 0x5e, 0xdc, 0x05, 0x3e, 0x53, 0xbf, 0x88, 0x3e,
  0x97, 0x06, 0x21, 0x3a, 0x14, 0x5b, 0xde, 0x3d, 0x0f, 0x0b, 0x0e, 0xbd,
  0x7a, 0x38, 0x9b, 0x3c, 0x1b, 0xef, 0xf8, 0x3c, 0x2c, 0xd5, 0x1f, 0x3e,
  0xad, 0xdf, 0x13, 0x3e, 0x02, 0xb9, 0xee, 0x3d, 0xf6, 0xf6, 0x1f, 0xbe,
  0x58, 0x23, 0xcc, 0x3e, 0x9a, 0xc4, 0xb3, 0x3e, 0x28, 0xd4, 0x18, 0x3f,
  0xd0, 0xb1, 0x74, 0x3f, 0x48, 0x30, 0xc5, 0x3e, 0x1a, 0x5a, 0x9e, 0x3f,
  0xbd, 0x63, 0x72, 0x3e, 0x6e, 0x38, 0xd9, 0xbe, 0x77, 0xcb, 0x93, 0x3f,
  0x29, 0x68, 0xef, 0x3e, 0x21, 0xdc, 0xb1, 0x3e, 0x9d, 0xb5, 0x24, 0xbf,
  0xd9, 0x2e, 0x19, 0xbe, 0x57, 0x83, 0x95, 0x3f, 0x0e, 0x47, 0xdb, 0x3e,
  0x1f, 0x85, 0x86, 0x3e, 0x65, 0x5a, 0x87, 0x3e, 0xa5, 0x00, 0x03, 0x3e,
  0xdb, 0x63, 0xda, 0xbc, 0x1e, 0xb0, 0x22, 0x3d, 0x4a, 0x48, 0x30, 0xbf,
  0xfa, 0x45, 0xf5, 0x3e, 0x04, 0x44, 0x3f, 0xbe, 0xb6, 0x21, 0x91, 0x3d,
  0x71, 0x9e, 0x78, 0xbe, 0x20, 0x5b, 0x2d, 0x3f, 0x61, 0x44, 0x95, 0x3e,
  0x8a, 0x4b, 0x8b, 0xbd, 0xc0, 0x69, 0xa8, 0xbe, 0x7d, 0x2b, 0x1e, 0x3e,
  0x39, 0x72, 0x1e, 0x3f, 0x06, 0x14, 0xd5, 0x3e, 0xd0, 0x30, 0xc2, 0xbe,
  0x92, 0x64, 0x3c, 0xbf, 0x19, 0x2a, 0x10, 0x3f, 0x22, 0x9c, 0xdc, 0x3f,
  0x5f, 0x2d, 0x9c, 0x3e, 0x2e, 0xc0, 0x56, 0xbf, 0x39, 0xd0, 0xdf, 0x3e,
  0x77, 0xa7, 0x39, 0xbd, 0x71, 0x40, 0xfb, 0xbd, 0x20, 0x0f, 0x45, 0xbe,
  0xd8, 0xc8, 0x52, 0xbf, 0xa3, 0x94, 0xdc, 0x3e, 0xc3, 0xb5, 0xa5, 0xbf,
  0xdd, 0x05, 0x3d, 0xbe, 0x00, 0x3d, 0xb3, 0x3e, 0x4d, 0x5d, 0xd9, 0x3c,
  0x3e, 0x97, 0xcb, 0x3d, 0xbd, 0x1a, 0x71, 0x3e, 0xd2, 0x9d, 0x17, 0xbf,
  0xf0, 0xad, 0x48, 0xbd, 0x63, 0x6f, 0xfb, 0x3c, 0xf9, 0x3c, 0xe0, 0x3e,
  0x66, 0xfa, 0x02, 0x3e, 0xd5, 0xa8, 0xb5, 0x3e, 0x7a, 0xad, 0x1f, 0xbf,
  0x9a, 0x72, 0x2d, 0xbd, 0x82, 0x69, 0xa5, 0xbe, 0xf1, 0x52, 0xb1, 0x3c,
  0xa4, 0x89, 0x8f, 0xbd, 0x63, 0x91, 0x0f, 0x3f, 0x4a, 0x35, 0x6d, 0xbe,
  0x7a, 0xf6, 0x33, 0xbd, 0xf5, 0x54, 0x1f, 0xbd, 0x8a, 0xb6, 0x46, 0x3e,
  0x1b, 0x42, 0xbd, 0xbe, 0x17, 0x65, 0xb0, 0xbe, 0x63, 0x78, 0x22, 0xbe,
  0x94, 0xa6, 0x13, 0xbf, 0x0c, 0xe6, 0x59, 0xbe, 0x0b, 0x18, 0x53, 0xbc,
  0x83, 0x5f, 0x8c, 0xbf, 0x3e, 0xe4, 0xe5, 0xbf, 0xf2, 0x08, 0x01, 0xbf,
  0x27, 0x3c, 0x86, 0xbe, 0x6d, 0xf0, 0x6b, 0xbd, 0xa3, 0x7e, 0x46, 0xbf,
  0x51, 0x88, 0x46, 0xbe, 0x38, 0x67, 0x2c, 0x3f, 0x5d, 0xc3, 0x33, 0xbf,
  0x63, 0x8f, 0x12, 0xbf, 0x07, 0xee, 0xc2, 0x3e, 0x77, 0xb6, 0x18, 0xbe,
  0x5f, 0xb4, 0xfc, 0xbd, 0x28, 0x20, 0x74, 0x3e, 0xb7, 0xbd, 0x0f, 0xbf,
  0x6a, 0x15, 0x5b, 0x3e, 0xbb, 0x42, 0x81, 0xba, 0x96, 0x3c, 0xce, 0xbc,
  0xc7, 0xff, 0xd9, 0x3e, 0x2f, 0x0c, 0xe1, 0xbe, 0xc0, 0x1b, 0x6e, 0x3d,
  0x4b, 0x07, 0x96, 0x3e, 0xc3, 0x22, 0x96, 0x3e, 0x23, 0x7e, 0x9b, 0xbe,
  0xb2, 0x09, 0x11, 0xbf, 0x29, 0x00, 0xcf, 0xbe, 0xd8, 0xfd, 0x15, 0xbf,
  0x8c, 0x99, 0xa7, 0xbf, 0xd2, 0x72, 0x55, 0x3e, 0x8a, 0x11, 0xa7, 0x3e,
  0xef, 0x5e, 0xb5, 0x3e, 0x4a, 0x35, 0x63, 0x3e, 0x5c, 0xcf, 0x64, 0xbd,
  0x8f, 0xd9, 0x15, 0xbe, 0x56, 0x2b, 0x27, 0x3f, 0x6a, 0xbd, 0x01, 0x3d,
  0xd1, 0xa3, 0x96, 0x3e, 0xbe, 0xbc, 0x19, 0xbe, 0xaa, 0xb5, 0x9c, 0x3e,
  0x80, 0x2b, 0xff, 0x3e, 0x0a, 0x87, 0x3b, 0xbf, 0x37, 0x96, 0x8a, 0x3e,
  0x52, 0x8d, 0xd6, 0x3e, 0x46, 0x2d, 0x4f, 0x3e, 0x42, 0x63, 0x35, 0x3e,
  0x6e, 0x2e, 0x31, 0x3f, 0xb7, 0x11, 0x00, 0xbd, 0x26, 0xdb, 0xc3, 0x3e,
  0xf9, 0x3b, 0x3c, 0xbf, 0xa0, 0xb8, 0x3c, 0x3e, 0x52, 0x55, 0x1d, 0xbf,
  0x56, 0x87, 0x57, 0xbf, 0xed, 0x7e, 0x0e, 0xbf, 0x8d, 0x58, 0xc7, 0x3e,
  0x86, 0xaf, 0x7e, 0x3c, 0x1b, 0x7b, 0x01, 0xbd, 0xbf, 0x5d, 0x6e, 0xbe,
  0x0b, 0x02, 0xfa, 0xbc, 0xca, 0x6b, 0x6e, 0x3f, 0x2e, 0xe9, 0x93, 0xbe,
  0x0e, 0x9a, 0xd4, 0xbd, 0x7a, 0x13, 0xc6, 0x3f, 0xb8, 0x1a, 0x4f, 0xbf,
  0x02, 0x98, 0xe9, 0x3e, 0x30, 0x4c, 0xbd, 0x3f, 0xf2, 0xc6, 0x2f, 0x3f,
  0x26, 0x0b, 0x5c, 0xbe, 0x72, 0xd7, 0x71, 0x3e, 0x39, 0xd1, 0x1f, 0xbe,
  0x81, 0x4e, 0x7e, 0x3f, 0x04, 0x2f, 0xb9, 0xbe, 0x3f, 0xbb, 0xa9, 0x3e,
  0xa4, 0x82, 0x13, 0xbf, 0x24, 0x7f, 0x52, 0x3e, 0x45, 0x44, 0xe7, 0x3e,
  0xfc, 0x62, 0x2a, 0x3e, 0xc6, 0xf3, 0x85, 0xbd, 0x36, 0x51, 0x31, 0xbf,
  0xc9, 0x6e, 0xdb, 0x3e, 0xae, 0x66, 0xb6, 0x3e, 0xfc, 0x8a, 0x58, 0x3e,
  0xae, 0x18, 0x0f, 0x3e, 0xd6, 0x3b, 0x2a, 0x3f, 0xb3, 0x15, 0xb8, 0x3e,
  0x7f, 0x0f, 0x4f, 0xbf, 0x4b, 0x80, 0xc6, 0x3e, 0x52, 0x15, 0x06, 0xbd,
  0xf7, 0x74, 0xff, 0x3d, 0x58, 0xcc, 0xe0, 0x3e, 0x20, 0x66, 0x66, 0x3e,
  0xd1, 0xea, 0x5a, 0x3f, 0x94, 0xdd, 0xd1, 0x3f, 0xba, 0x40, 0x5e, 0x3e,
  0x0a, 0x1d, 0x86, 0xbf, 0x68, 0xff, 0x25, 0xbe, 0xc6, 0x06, 0xeb, 0x3d,
  0x69, 0xba, 0x34, 0x3f, 0x53, 0xa8, 0x93, 0xbe, 0xdb, 0xc7, 0x21, 0x3f,
  0x24, 0xf9, 0x1a, 0x40, 0xfc, 0x81, 0x65, 0x3f, 0x73, 0x2d, 0xab, 0xbd,
  0xb3, 0xb1, 0x6e, 0x3e, 0x86, 0xeb, 0x78, 0x3d, 0x72, 0xb0, 0x8f, 0xbe,
  0x8c, 0x98, 0xde, 0xbd, 0x9a, 0x9f, 0x35, 0xbf, 0x62, 0x60, 0xeb, 0x3d,
  0x63, 0x17, 0x63, 0x3f, 0x6d, 0x72, 0x32, 0x3f, 0x3b, 0xd0, 0xd0, 0xba,
  0x4d, 0x36, 0xdf, 0x3f, 0xde, 0xc7, 0x1b, 0x3f, 0x68, 0xfc, 0x4e, 0xbc,
  0xea, 0xae, 0xab, 0xbe, 0xda, 0xb5, 0x81, 0xbe, 0xcf, 0x13, 0xca, 0x3e,
  0x9a, 0x5a, 0x01, 0x3f, 0x3d, 0xc4, 0xe0, 0x3e, 0x11, 0x48, 0xe5, 0x3e,
  0xe1, 0x15, 0xb3, 0xbe, 0xfb, 0x95, 0x75, 0x3e, 0x9c, 0x72, 0x99, 0x3f,
  0x15, 0x84, 0x58, 0x3f, 0x9f, 0x75, 0x3e, 0xbd, 0x47, 0xe0, 0xa4, 0x3f,
  0x4a, 0x3d, 0xe9, 0xbe, 0xdc, 0x22, 0x2c, 0x3f, 0x81, 0x02, 0xbe, 0x3f,
  0xde, 0xce, 0x0d, 0xbd, 0x3f, 0x66, 0xd0, 0x3e, 0x1f, 0xab, 0xd2, 0x3e,
  0x60, 0x83, 0x0b, 0x3f, 0xb4, 0x3d, 0xcc, 0x3f, 0x21, 0xad, 0x43, 0x3f,
  0xd1, 0x7d, 0x4f, 0xbe, 0xbc, 0xe2, 0xad, 0xbe, 0xa6, 0x56, 0xcd, 0xbd,
  0x04, 0x84, 0xe9, 0x3e, 0xc7, 0x07, 0xf8, 0x3e, 0x65, 0x02, 0x0c, 0x3e,
  0x32, 0xe3, 0x30, 0xbd, 0x3d, 0x6a, 0x41, 0x3e, 0x45, 0x6f, 0x6e, 0x3f,
  0x6d, 0x25, 0x37, 0xbd, 0x74, 0xaa, 0x98, 0x3e, 0x95, 0x14, 0xa7, 0xbe,
  0x7c, 0xb3, 0xb2, 0x3e, 0x70, 0x98, 0x46, 0x3f, 0xfd, 0x57, 0x47, 0xbe,
  0x0a, 0xe4, 0xac, 0x3e, 0x82, 0xd3, 0x50, 0xbe, 0xa0, 0x74, 0x14, 0x3d,
  0x3c, 0xdc, 0xdc, 0x3e, 0x3e, 0x4d, 0x57, 0x3f, 0x2e, 0xde, 0xe8, 0x3f,
  0x6f, 0x18, 0x97, 0x3f, 0x25, 0xf8, 0x9f, 0x3f, 0x17, 0x79, 0x0a, 0x3e,
  0xb8, 0x71, 0x5a, 0x3e, 0x0e, 0xf9, 0x91, 0x3f, 0x45, 0xc0, 0xe0, 0x3e,
  0xa2, 0xae, 0xf8, 0x3e, 0x2e, 0x26, 0x02, 0x3f, 0xb8, 0x61, 0xc1, 0xbf,
  0xa7, 0x34, 0x82, 0xbd, 0xbe, 0x01, 0x56, 0xbe, 0xa4, 0xae, 0xba, 0xbc,
  0x48, 0xd0, 0xf6, 0x3e, 0xd3, 0xf0, 0xe6, 0x3e, 0x9c, 0x67, 0xd3, 0xbf,
  0xab, 0x1c, 0x87, 0xbe, 0x83, 0x22, 0xad, 0x3e, 0x59, 0x85, 0xb5, 0x3e,
  0xb3, 0x7b, 0x7c, 0x3e, 0x70, 0x5e, 0xea, 0xbe, 0x2d, 0x2a, 0x87, 0x3d,
  0x68, 0xe4, 0x0a, 0x3d, 0x2c, 0x1f, 0xb1, 0xbe, 0x60, 0x89, 0x58, 0xbe,
  0x4a, 0x79, 0x75, 0x3f, 0x6b, 0x1c, 0x64, 0xbe, 0x29, 0xdf, 0x12, 0x3e,
  0xf3, 0xf3, 0xed, 0xbd, 0xb0, 0x3a, 0xc0, 0x3d, 0x25, 0xc8, 0x12, 0x3e,
  0xb5, 0x89, 0x4b, 0x39, 0xbc, 0x55, 0x5d, 0x3e, 0x26, 0xcd, 0x8b, 0x3e,
  0xe2, 0x1f, 0x46, 0x3f, 0xf2, 0x04, 0x9c, 0xbe, 0x1c, 0x81, 0x6e, 0x3f,
  0xe0, 0x2a, 0x0e, 0x3f, 0x9c, 0xea, 0xcd, 0xbf, 0x57, 0xad, 0x53, 0xbe,
  0x45, 0x96, 0x7d, 0x3f, 0x7c, 0xff, 0xb4, 0x3d, 0x5c, 0x7f, 0x83, 0xbf,
  0x45, 0xb5, 0x20, 0x3d, 0x0d, 0x02, 0xcc, 0x3c, 0x44, 0xf7, 0xc4, 0x3e,
  0x2a, 0x49, 0x09, 0xc0, 0x7b, 0x06, 0xd6, 0x3d, 0x36, 0x4c, 0xa5, 0xbe,
  0xb6, 0x36, 0xb0, 0xbe, 0x59, 0xac, 0x6e, 0x3e, 0x18, 0x8f, 0x0b, 0xbe,
  0x99, 0xd9, 0x03, 0x3f, 0xcc, 0x5d, 0x7b, 0x3b, 0xec, 0xf4, 0x85, 0x3d,
  0x5b, 0x2f, 0xc4, 0xbf, 0x78, 0x52, 0xb7, 0xbf, 0x12, 0x74, 0x03, 0x3e,
  0x4d, 0xa7, 0xcd, 0x3e, 0x7d, 0xca, 0xad, 0x3d, 0xd1, 0xcb, 0xfb, 0xbf,
  0x40, 0x32, 0xb6, 0xbf, 0x4e, 0x5e, 0x6f, 0xbf, 0x56, 0xa9, 0x06, 0x3f,
  0x97, 0xc4, 0xb0, 0xbf, 0xa2, 0xc5, 0x04, 0x3f, 0x35, 0xc4, 0xe8, 0xbe,
  0xea, 0xdb, 0x8e, 0xbd, 0xb9, 0x66, 0x0a, 0xbf, 0x1f, 0xed, 0xcb, 0x3c,
  0x55, 0x24, 0x86, 0x3e, 0xf6, 0x5e, 0xd8, 0xbe, 0x97, 0xc8, 0xc3, 0xbd,
  0x89, 0x32, 0xb6, 0xbe, 0x0d, 0xcb, 0xa9, 0x3d, 0x53, 0x18, 0x46, 0xbf,
  0x72, 0xa1, 0x2a, 0x3e, 0x09, 0x82, 0x45, 0x3e, 0x24, 0x0a, 0x1c, 0xbd,
  0x5a, 0xb5, 0xdc, 0xbe, 0x01, 0x44, 0x40, 0xbe, 0x2d, 0x90, 0xb1, 0x3d,
  0x2c, 0xa1, 0x00, 0xbe, 0xcb, 0x02, 0x0e, 0x3e, 0x33, 0x9a, 0x2f, 0xbd,
  0x18, 0x92, 0xb7, 0x3e, 0xe1, 0x36, 0x20, 0x3e, 0x17, 0x8c, 0x18, 0xbf,
  0x79, 0xb0, 0x37, 0xbf, 0x72, 0x9d, 0xe0, 0x3e, 0x6b, 0x28, 0xa8, 0xbe,
  0x7b, 0x96, 0xd8, 0xbe, 0xb0, 0xcc, 0x43, 0x3f, 0xc1, 0xe1, 0xd3, 0x3b,
  0xbe, 0x88, 0x4c, 0x3e, 0xee, 0x6e, 0x89, 0xbf, 0xee, 0x32, 0xec, 0x3d,
  0x73, 0x46, 0x8c, 0x3e, 0xe0, 0xfe, 0x08, 0xbf, 0x0b, 0x21, 0x4f, 0xbf,
  0x62, 0x20, 0xa2, 0xbd, 0x79, 0x7e, 0x47, 0xbf, 0x8b, 0x05, 0xa9, 0xbe,
  0xb7, 0x3d, 0x8d, 0xbe, 0x9a, 0x27, 0x65, 0x3e, 0x55, 0x2b, 0x30, 0x3e,
  0x5a, 0x12, 0x2b, 0xbf, 0xf4, 0x94, 0x7f, 0x3e, 0x04, 0x5d, 0xa2, 0x3e,
  0x11, 0xb1, 0x23, 0xbe, 0x95, 0x4c, 0xaf, 0xbe, 0x23, 0xc3, 0xb8, 0xbd,
  0x8f, 0xcd, 0x9c, 0x3d, 0x6a, 0x70, 0xc4, 0xbe, 0x11, 0x46, 0x0a, 0x3f,
  0x4d, 0xd2, 0xaf, 0x3e, 0x4b, 0x82, 0xaf, 0xbe, 0x03, 0xcc, 0x7f, 0xbd,
  0xa2, 0xba, 0x95, 0xbe, 0x28, 0xe6, 0xda, 0xbf, 0xb6, 0xe4, 0x84, 0xbe,
  0xfa, 0xe1, 0x3f, 0x3f, 0x36, 0xb3, 0x56, 0x3d, 0xd8, 0xfd, 0xcc, 0x3e,
  0xdd, 0x20, 0xb2, 0xbd, 0x74, 0xa7, 0x56, 0x3d, 0xfa, 0xfc, 0x6a, 0xbf,
  0x6a, 0x0a, 0xae, 0xbd, 0x92, 0x1e, 0x46, 0xbf, 0xe8, 0x95, 0x20, 0x3e,
  0xd5, 0x03, 0x97, 0x3f, 0x3a, 0x8c, 0xbe, 0x3e, 0x9e, 0x4e, 0x33, 0xbf,
  0x7f, 0xdf, 0x3c, 0xbf, 0x3b, 0x74, 0xbf, 0xbf, 0x69, 0x0e, 0x23, 0x3e,
  0x88, 0x54, 0xce, 0x3e, 0x33, 0x0c, 0xe7, 0x3f, 0x7d, 0xab, 0x53, 0xbe,
  0x3f, 0x3a, 0xde, 0x3e, 0x5e, 0x0f, 0x48, 0x3f, 0x4f, 0x2c, 0x95, 0xbf,
  0x12, 0x97, 0x5b, 0x3f, 0x1a, 0x45, 0x6c, 0xbd, 0x39, 0xb7, 0x64, 0x3f,
  0xac, 0xf7, 0xa1, 0x3e, 0x5d, 0xd8, 0x84, 0x3f, 0x8c, 0x7f, 0x0a, 0xbe,
  0x08, 0x74, 0x41, 0x3e, 0x59, 0x6b, 0x29, 0x3f, 0x3a, 0xa2, 0x76, 0x3e,
  0x1e, 0x0c, 0x12, 0xbe, 0x30, 0x9b, 0xc6, 0x3e, 0x58, 0xd6, 0x17, 0x3f,
  0x4e, 0xaa, 0x24, 0xbe, 0x6b, 0x75, 0xae, 0xbe, 0x7a, 0xd7, 0xd5, 0x3f,
  0xb5, 0xa4, 0x24, 0x3d, 0xc4, 0x20, 0x92, 0x3e, 0x11, 0x81, 0xb3, 0x3f,
  0x6b, 0x0d, 0x8f, 0xba, 0x99, 0xb7, 0xcf, 0x3c, 0xca, 0x90, 0x74, 0x3f,
  0x4f, 0x35, 0x8b, 0xbd, 0x24, 0xac, 0x18, 0xbf, 0x08, 0x46, 0x86, 0x3f,
  0xb2, 0xf5, 0x70, 0x3e, 0x67, 0xfe, 0x9a, 0x3e, 0x58, 0x6c, 0xc6, 0xbe,
  0x66, 0x3c, 0x26, 0x3f, 0xc6, 0x5d, 0xad, 0x3f, 0x97, 0xcf, 0x09, 0xbf,
  0xc2, 0x1a, 0x68, 0x3f, 0x8d, 0x03, 0x39, 0xbf, 0xf0, 0x44, 0xb6, 0x3d,
  0x85, 0x0f, 0x4e, 0x3f, 0x4b, 0xc1, 0x33, 0x3f, 0xbb, 0x99, 0x2a, 0x3f,
  0xa4, 0x54, 0x4b, 0xbd, 0x7a, 0xb6, 0x0d, 0x3f, 0x1f, 0x76, 0xb7, 0xbe,
  0xd3, 0xea, 0x6e, 0xbd, 0xc2, 0x05, 0x94, 0xbe, 0xc0, 0x1f, 0x43, 0xbe,
  0x16, 0x68, 0xcd, 0xbd, 0x61, 0x0e, 0xee, 0xbc, 0xb9, 0x80, 0xf0, 0x3e,
  0x4c, 0xe1, 0x4b, 0xbe, 0xc7, 0xd6, 0x64, 0x3e, 0xa5, 0xe2, 0x9a, 0xbd,
  0xaa, 0xbe, 0x0b, 0x3f, 0xb7, 0xe0, 0x52, 0x3f, 0x24, 0x4c, 0xbc, 0x3f,
  0x4e, 0x3f, 0xd0, 0x3f, 0xa1, 0x3c, 0x6f, 0x3e, 0x98, 0xe0, 0xf9, 0x3d,
  0x52, 0x1a, 0x0c, 0x3f, 0x43, 0xde, 0xb6, 0xbf, 0x76, 0xd5, 0x91, 0xbd,
  0x96, 0xd6, 0xe7, 0xbe, 0x40, 0xef, 0x08, 0x3e, 0x19, 0x33, 0x9b, 0x3d,
  0x8a, 0x4c, 0x22, 0x3d, 0xb4, 0xe6, 0xf7, 0xbe, 0x30, 0xdd, 0xe6, 0xbd,
  0x3f, 0x46, 0xd6, 0xbd, 0x3c, 0x5e, 0xdf, 0x3e, 0x19, 0x8d, 0x26, 0xbe,
  0x18, 0xbc, 0x2f, 0x3f, 0xeb, 0xaa, 0x8c, 0x3e, 0xe8, 0xf3, 0xb6, 0xbd,
  0x0f, 0xd7, 0x17, 0x3e, 0xbe, 0xc9, 0xc6, 0xbd, 0x6a, 0x7a, 0xbb, 0xbf,
  0x4e, 0x21, 0x54, 0x3b, 0xc3, 0x43, 0xc3, 0xbe, 0x55, 0x03, 0xcc, 0xbd,
  0x79, 0xba, 0x84, 0xbe, 0x4e, 0x62, 0x9f, 0xbc, 0x46, 0x0c, 0x52, 0xbf,
  0x12, 0x9f, 0xb5, 0xbd, 0xe7, 0xbd, 0x68, 0x3e, 0x2c, 0xee, 0x43, 0x3e,
  0xaf, 0x9a, 0x87, 0xbf, 0x83, 0x2e, 0x35, 0xbf, 0xbc, 0xcb, 0x40, 0x3e,
  0xfb, 0x36, 0x74, 0xbf, 0x18, 0xc8, 0x70, 0xbe, 0x9f, 0x61, 0xd5, 0xbf,
  0xad, 0xf3, 0x5a, 0xbf, 0x12, 0xca, 0x0b, 0x3f, 0xb0, 0xfc, 0x9f, 0xbf,
  0xe6, 0xf3, 0x02, 0xc0, 0x0c, 0x17, 0xee, 0xbe, 0xe8, 0xc3, 0x94, 0xbf,
  0x5f, 0xd3, 0x10, 0x3f, 0x00, 0x5f, 0x16, 0x3f, 0xff, 0x0b, 0xc1, 0xbe,
  0x74, 0xf6, 0x83, 0x3d, 0xbb, 0xae, 0xac, 0x3c, 0xe6, 0x9d, 0xf5, 0xbc,
  0x86, 0x3e, 0xa8, 0x3e, 0x9d, 0x23, 0x0d, 0xbe, 0x1d, 0x25, 0x5d, 0x3d,
  0xa7, 0xb8, 0x57, 0xbf, 0xe5, 0xbc, 0x54, 0xbe, 0x5b, 0x75, 0x8a, 0xbf,
  0xea, 0x37, 0xa7, 0xbe, 0xe6, 0x5c, 0x63, 0x3e, 0x8a, 0x3c, 0x35, 0xbe,
  0xb0, 0x7e, 0x68, 0x3e, 0xdc, 0x22, 0xbb, 0xbe, 0x84, 0x3c, 0x2a, 0xbe,
  0x40, 0x27, 0x35, 0x3e, 0xa7, 0x07, 0x6c, 0x3e, 0xbf, 0x90, 0x4e, 0x3f,
  0x94, 0x58, 0xa8, 0xbf, 0x8a, 0xf3, 0xf6, 0x3e, 0x90, 0x16, 0x8b, 0xbe,
  0xcf, 0xab, 0x13, 0xbe, 0x64, 0x9e, 0xbc, 0xbf, 0xc6, 0xdf, 0x1a, 0xbe,
  0xe0, 0x75, 0xe9, 0xbe, 0xed, 0xf0, 0x1e, 0x3c, 0xf1, 0xaa, 0x2c, 0xbd,
  0x8a, 0x8c, 0xfc, 0x3d, 0x4d, 0x3c, 0x20, 0x3d, 0x9c, 0xf4, 0x04, 0x3d,
  0xe4, 0xad, 0xdb, 0x3d, 0x7f, 0x6d, 0x31, 0xbd, 0x88, 0x91, 0xbd, 0x3e,
  0x58, 0xf4, 0xa6, 0xbe, 0xa9, 0x5a, 0xcb, 0x3e, 0x1c, 0x11, 0x11, 0x3e,
  0x13, 0x48, 0x03, 0xbf, 0x6d, 0x11, 0x57, 0x3e, 0xa3, 0xe1, 0xea, 0xbc,
  0x80, 0xbd, 0x3d, 0xbf, 0xa4, 0x0c, 0x35, 0xbe, 0x44, 0x4c, 0x1e, 0xbf,
  0x19, 0xb3, 0xcb, 0xbe, 0xf0, 0x82, 0x3a, 0xbf, 0x5d, 0x24, 0xd0, 0xbe,
  0x61, 0xa3, 0xe7, 0xbe, 0x27, 0x81, 0x53, 0x3e, 0x20, 0x04, 0x72, 0x3e,
  0xf3, 0x08, 0xa8, 0x3e, 0x0a, 0x7c, 0xf8, 0x3c, 0x8e, 0x42, 0x98, 0xbf,
  0xc3, 0x52, 0xb8, 0xbe, 0x27, 0x64, 0xc3, 0xbe, 0xf9, 0x47, 0xcc, 0xbe,
  0x23, 0x0d, 0x09, 0xbf, 0xfe, 0xdd, 0x0d, 0xbd, 0x7f, 0x78, 0xa1, 0xbe,
  0xaf, 0x1c, 0xfc, 0xbe, 0xd8, 0xc3, 0x19, 0xbf, 0x7e, 0x77, 0xfa, 0xbe,
  0xc1, 0x82, 0xa2, 0xbf, 0xa5, 0xb2, 0xb2, 0x3d, 0x7e, 0x87, 0x58, 0x3f,
  0x07, 0x76, 0x6b, 0xbb, 0x87, 0x63, 0x82, 0xbd, 0x1c, 0x8f, 0x94, 0x3e,
  0x62, 0x45, 0xc6, 0xbd, 0x9d, 0x3e, 0x8f, 0x3e, 0x18, 0x77, 0xb1, 0xbd,
  0x4b, 0xad, 0xde, 0x3e, 0x06, 0xe3, 0x4c, 0xbf, 0x88, 0x18, 0xee, 0xbd,
  0xf9, 0x0f, 0x2f, 0xbf, 0x04, 0x6b, 0x1f, 0xbe, 0xc7, 0x31, 0x9f, 0xbe,
  0xe6, 0x7e, 0x0f, 0xbd, 0x9e, 0x40, 0x81, 0x3e, 0xa5, 0xa9, 0xfa, 0x3e,
  0xb4, 0xa1, 0xac, 0xbe, 0xe7, 0x19, 0xfc, 0x3e, 0xe1, 0xdb, 0x2a, 0xbe,
  0xce, 0x76, 0xaf, 0x3e, 0x64, 0x4b, 0xd9, 0xbf, 0x44, 0x10, 0xeb, 0x3e,
  0x4b, 0x9c, 0x83, 0x3f, 0xff, 0x32, 0x9d, 0x3e, 0xf0, 0xbb, 0xe8, 0xbe,
  0xc4, 0x38, 0x8d, 0xbf, 0xf9, 0xb3, 0x66, 0xbe, 0xca, 0x9b, 0x98, 0x3e,
  0x91, 0x03, 0xa3, 0x3e, 0xa4, 0xe7, 0xa8, 0xbf, 0xf0, 0x3b, 0x60, 0xbe,
  0xda, 0xaa, 0xec, 0xbe, 0x25, 0xf2, 0xd0, 0xbc, 0x6a, 0x9a, 0x99, 0x3d,
  0x61, 0x04, 0xa4, 0x3e, 0x23, 0x66, 0x50, 0xbe, 0x9c, 0x7a, 0x65, 0xbe,
  0x20, 0x32, 0xb5, 0xbb, 0x23, 0x16, 0x2f, 0x3e, 0x78, 0x4b, 0xee, 0xbd,
  0x36, 0xb2, 0x45, 0xbd, 0xd5, 0x47, 0x40, 0xbe, 0xe2, 0xdc, 0x65, 0xbe,
  0x02, 0xe5, 0xfe, 0xbe, 0x1c, 0x75, 0x55, 0xbf, 0xe1, 0x92, 0x6b, 0xbd,
  0xc0, 0x3b, 0xdb, 0xbe, 0x46, 0x82, 0xc2, 0xbf, 0xa0, 0xa1, 0xc7, 0x3e,
  0x5c, 0xe1, 0x33, 0x3e, 0x6e, 0x53, 0x55, 0x3e, 0x96, 0x7b, 0x7d, 0xbf,
  0xdb, 0xab, 0xa1, 0x3e, 0xe1, 0x6b, 0x9a, 0x3d, 0x36, 0xd0, 0x94, 0x3e,
  0xa7, 0xad, 0x46, 0xbf, 0x85, 0xc0, 0xc6, 0xbf, 0x87, 0x6a, 0x92, 0x3e,
  0x1e, 0x77, 0x2f, 0xbf, 0xb7, 0x98, 0x9d, 0xbf, 0x83, 0xf5, 0xcb, 0xbf,
  0x2a, 0x47, 0xb5, 0xbd, 0x6e, 0x6b, 0xb8, 0xbe, 0x65, 0x9c, 0x86, 0x3c,
  0x6a, 0x10, 0xd0, 0xbc, 0x53, 0x89, 0x86, 0xbf, 0xe4, 0x18, 0x54, 0xbe,
  0x6b, 0xac, 0x5c, 0xbd, 0x77, 0xa9, 0xd6, 0xbe, 0xcf, 0x2d, 0x1c, 0xbe,
  0x13, 0xf7, 0x0a, 0x3e, 0x8a, 0xee, 0x32, 0x3d, 0x92, 0x37, 0x36, 0xbe,
  0x20, 0x08, 0xc9, 0x3d, 0xaf, 0x50, 0xbf, 0x3c, 0x99, 0x4f, 0x75, 0xbf,
  0xf4, 0xe1, 0x3f, 0xbf, 0x83, 0x47, 0x90, 0xbe, 0xba, 0xe8, 0xef, 0x3d,
  0xa4, 0xf8, 0x2d, 0x3e, 0x26, 0x04, 0x2e, 0xbd, 0x7b, 0x4f, 0x46, 0x3e,
  0xfd, 0x35, 0x96, 0xbf, 0x95, 0x1b, 0xbd, 0xbe, 0x33, 0x30, 0x84, 0xbf,
  0xfd, 0x26, 0xdc, 0x3e, 0xa9, 0x42, 0xd5, 0x3e, 0x25, 0x6a, 0xcc, 0x3d,
  0x6d, 0xde, 0x08, 0x3f, 0xea, 0xe9, 0x5f, 0x3f, 0xb9, 0xe1, 0x2d, 0xbe,
  0x8a, 0xc3, 0xc9, 0x3e, 0x41, 0x36, 0x43, 0x3e, 0x34, 0x5a, 0x01, 0x3f,
  0xae, 0x16, 0x8d, 0xbd, 0xf7, 0x69, 0x72, 0x3d, 0x89, 0xd3, 0x3d, 0x3e,
  0x82, 0x1e, 0x63, 0xbe, 0xfa, 0xaa, 0x5b, 0x3e, 0x60, 0x33, 0x72, 0x3d,
  0x4e, 0x2a, 0x29, 0xbe, 0x5e, 0x7b, 0x04, 0x3f, 0xdc, 0x30, 0x0a, 0x3f,
  0x6e, 0x44, 0x97, 0x3e, 0x0f, 0x09, 0x91, 0x3e, 0x86, 0xa2, 0x28, 0x3f,
  0x25, 0x03, 0xd5, 0xbd, 0xdd, 0xa6, 0xf2, 0x3e, 0xd9, 0xf1, 0x4d, 0x3e,
  0x9b, 0x4e, 0xd8, 0x3f, 0x95, 0xfd, 0xbb, 0xbe, 0xdb, 0xe4, 0xfb, 0x3e,
  0x24, 0x68, 0xd0, 0xbd, 0xe0, 0x2a, 0x47, 0xbf, 0xa8, 0x1e, 0xa7, 0x3e,
  0x43, 0x83, 0xa3, 0x3f, 0xab, 0x5b, 0x9d, 0x3f, 0xb4, 0xf9, 0x61, 0x3e,
  0x05, 0x5e, 0xa6, 0x3f, 0x8f, 0xd0, 0xb0, 0x3e, 0xf0, 0x4a, 0x91, 0x3f,
  0xcc, 0x92, 0x8a, 0x3f, 0xdd, 0x6f, 0x1d, 0xbe, 0xb2, 0x52, 0x54, 0x3e,
  0xae, 0xf7, 0x63, 0x3f, 0x84, 0x1a, 0x5e, 0x3e, 0x24, 0x63, 0x09, 0x40,
  0x35, 0x59, 0x2b, 0x3f, 0x88, 0x90, 0x85, 0xbd, 0xea, 0x38, 0xce, 0xbd,
  0xfa, 0x64, 0xa8, 0x3d, 0x02, 0x84, 0x4e, 0x3f, 0xb5, 0x47, 0x29, 0x3f,
  0xc7, 0xbe, 0xc6, 0xbb, 0xbc, 0xd7, 0x43, 0xbd, 0xe0, 0xc7, 0x35, 0x3f,
  0x8f, 0x1f, 0xcc, 0x3f, 0x42, 0x32, 0xc5, 0x3d, 0xdf, 0x8d, 0xb1, 0x3e,
  0xc9, 0xf6, 0x69, 0x3e, 0x46, 0xb3, 0x28, 0x3f, 0x4a, 0xdf, 0x2f, 0x3f,
  0x4a, 0x6d, 0xbf, 0x3e, 0x8a, 0x24, 0x9c, 0x3d, 0x13, 0x27, 0xfb, 0x3e,
  0x65, 0x63, 0x2c, 0x3c, 0xab, 0x0f, 0x2b, 0x3f, 0x18, 0x2a, 0x01, 0x3f,
  0xa3, 0xcd, 0x08, 0x40, 0x55, 0x82, 0x2d, 0x3f, 0xcb, 0x18, 0xbb, 0x3e,
  0x3b, 0x83, 0x35, 0x3e, 0x1e, 0x24, 0x30, 0x3e, 0xf7, 0x58, 0x7e, 0xbf,
  0x7c, 0xdb, 0x10, 0xbe, 0x65, 0xec, 0x0b, 0x3e, 0xe6, 0x43, 0x10, 0x3c,
  0xf9, 0x2e, 0x51, 0x3e, 0x18, 0x36, 0x72, 0x3d, 0x8c, 0xe4, 0x0e, 0xbe,
  0xf7, 0xd5, 0x8a, 0x3e, 0xe9, 0xdc, 0x73, 0x3d, 0x5e, 0x6c, 0x90, 0x3e,
  0x65, 0x42, 0xb1, 0xbc, 0xfe, 0xed, 0x8b, 0x3e, 0x5f, 0xaf, 0xa4, 0x3e,
  0xfc, 0x51, 0xe8, 0xbe, 0x6d, 0x4b, 0xb8, 0x3e, 0x58, 0x77, 0x3f, 0x3d,
  0xd7, 0xc1, 0x8b, 0xbd, 0xa2, 0xb9, 0xb9, 0xbd, 0x0c, 0xec, 0x7d, 0xbf,
  0xae, 0x07, 0x89, 0xbe, 0x7c, 0xc1, 0xa9, 0xbe, 0x15, 0x2d, 0x22, 0xbe,
  0x9e, 0x0b, 0x7a, 0xbf, 0x3f, 0x0d, 0xbf, 0x3e, 0xd7, 0x33, 0x8c, 0xbd,
  0x84, 0xf6, 0x13, 0x3e, 0x3c, 0xe4, 0x97, 0xbe, 0xac, 0xa9, 0x64, 0xbf,
  0x56, 0xb6, 0xa2, 0x3e, 0x91, 0x11, 0x8e, 0xbf, 0x18, 0xa9, 0x46, 0xbf,
  0x76, 0xd4, 0x64, 0xbf, 0x85, 0x24, 0xde, 0xbe, 0x1e, 0x90, 0x0b, 0xbf,
  0x4f, 0x05, 0x9c, 0xbf, 0x7c, 0x51, 0xae, 0xbf, 0xda, 0x46, 0xe5, 0xbe,
  0x6a, 0x18, 0xb8, 0xbf, 0x07, 0x2b, 0x8e, 0x3e, 0xb5, 0x75, 0x05, 0x3d,
  0x64, 0xe2, 0x07, 0xbf, 0xec, 0xcd, 0x91, 0xbc, 0xa1, 0xd5, 0x96, 0x3e,
  0x8d, 0x47, 0x49, 0x3f, 0xff, 0x80, 0x90, 0x3e, 0x9f, 0xab, 0xdd, 0xbd,
  0x36, 0x93, 0xe9, 0x3e, 0x2e, 0x70, 0x42, 0xbf, 0x53, 0xcc, 0xa3, 0xbc,
  0xbd, 0x89, 0x33, 0xbf, 0xbc, 0x61, 0xa4, 0xbf, 0x94, 0x15, 0x30, 0xbe,
  0x52, 0xf3, 0x3a, 0xbe, 0xf0, 0x2c, 0x42, 0x3d, 0x32, 0x40, 0xf7, 0x3d,
  0xf6, 0xc7, 0x8c, 0xbe, 0xf3, 0x2d, 0xae, 0xbe, 0x3f, 0x13, 0x6e, 0xbe,
  0x97, 0xcf, 0x70, 0xbd, 0x91, 0x17, 0xe9, 0xbf, 0xc6, 0xdc, 0xd9, 0x3d,
  0x93, 0x6d, 0x85, 0x3f, 0x40, 0xb7, 0x22, 0x3e, 0xa3, 0x05, 0x8d, 0xbf,
  0xb7, 0x4d, 0x2b, 0xbe, 0x24, 0x4a, 0x01, 0x3e, 0xac, 0x05, 0x09, 0xbe,
  0xf6, 0xf7, 0x4e, 0xbe, 0xc1, 0xfb, 0x08, 0xbf, 0x51, 0xe6, 0x23, 0x3d,
  0xbf, 0x68, 0x11, 0xbe, 0x71, 0x84, 0x24, 0x3e, 0xed, 0x1f, 0x19, 0x3e,
  0x02, 0x79, 0x85, 0x3d, 0xac, 0xbc, 0x9f, 0xbe, 0x6d, 0xf6, 0x36, 0x3e,
  0xba, 0xe6, 0x3d, 0x3e, 0x5e, 0x1f, 0x37, 0xbe, 0xfb, 0xfb, 0x41, 0x3d,
  0x91, 0x77, 0xe3, 0xbe, 0xe2, 0xbf, 0xda, 0x3e, 0xbd, 0xaa, 0x3d, 0x3d,
  0x38, 0x99, 0xbe, 0xbe, 0xd3, 0x2a, 0x18, 0xbf, 0x80, 0x13, 0x0c, 0x3f,
  0x6d, 0x9a, 0x91, 0xbe, 0x51, 0xc2, 0xe7, 0xbe, 0xab, 0x53, 0xf3, 0x3d,
  0x99, 0x3a, 0xf3, 0xbd, 0x7f, 0x45, 0x45, 0x3e, 0xd2, 0xdd, 0xcd, 0xbf,
  0x79, 0x51, 0x28, 0x3e, 0xc3, 0x4b, 0x90, 0x3e, 0x8f, 0x4c, 0x37, 0xbf,
  0xd8, 0xdd, 0x07, 0xbf, 0xa4, 0x00, 0x3a, 0xbe, 0x97, 0x82, 0x00, 0xbf,
  0x4b, 0x36, 0x91, 0xbf, 0xff, 0x40, 0x1c, 0xbf, 0x59, 0xdc, 0xcf, 0xbd,
  0x20, 0x3c, 0xb7, 0x3e, 0x96, 0xa0, 0xac, 0x3d, 0xde, 0xc3, 0x80, 0x3e,
  0xfb, 0x1f, 0xe1, 0xbe, 0x33, 0x2a, 0x91, 0xbb, 0xca, 0xd5, 0x25, 0x3d,
  0x2f, 0x9b, 0xa6, 0x3e, 0xad, 0x38, 0x58, 0x3f, 0x87, 0x5e, 0x39, 0xbf,
  0x98, 0x14, 0xd9, 0x3e, 0xe7, 0x3b, 0x1a, 0x3c, 0x24, 0x91, 0x3f, 0xbf,
  0xc1, 0xbb, 0xa9, 0x3d, 0xca, 0xb1, 0x71, 0xbe, 0xde, 0x68, 0xba, 0xbf,
  0x5a, 0x60, 0x86, 0xbe, 0x7a, 0x3a, 0x97, 0x3e, 0x8a, 0x88, 0xa3, 0xbd,
  0x4c, 0x0b, 0x11, 0x3f, 0x36, 0xd5, 0xb1, 0xbe, 0x1f, 0xa0, 0xd9, 0xbe,
  0xa5, 0x51, 0x2e, 0xbf, 0x9a, 0x5e, 0x74, 0xbf, 0x23, 0x7a, 0xc2, 0xbd,
  0xac, 0xda, 0x62, 0xbd, 0x00, 0x33, 0x5f, 0x3f, 0x55, 0x3e, 0x1e, 0x3f,
  0x1b, 0x82, 0x97, 0xbf, 0x5f, 0x77, 0x4b, 0x3e, 0x2b, 0x4b, 0xec, 0x3e,
  0xff, 0xa6, 0xe8, 0x3e, 0xad, 0x79, 0x32, 0x3e, 0x52, 0x02, 0xd7, 0x3e,
  0xe3, 0xa7, 0x44, 0x3d, 0x31, 0x38, 0x67, 0x3c, 0x30, 0xf0, 0x8c, 0x3f,
  0x4a, 0x82, 0x01, 0x3f, 0xb4, 0x1f, 0x7e, 0x3e, 0xa1, 0x7a, 0x6b, 0xbd,
  0x97, 0xa2, 0x15, 0xbd, 0x21, 0x98, 0xc2, 0xbc, 0x2d, 0xf5, 0x70, 0x3e,
  0x2f, 0xd3, 0x2d, 0x3e, 0x32, 0x63, 0x1a, 0x3e, 0xce, 0xcd, 0x5e, 0x3f,
  0x9e, 0x9f, 0xad, 0xbd, 0x0d, 0x1d, 0xa1, 0x3e, 0x52, 0x7a, 0x74, 0x3e,
  0x9a, 0x7c, 0xb7, 0x3f, 0xca, 0xf6, 0x9d, 0xbe, 0xf7, 0x02, 0x7b, 0x3f,
  0x8e, 0x7b, 0x02, 0x3f, 0x8c, 0x3a, 0xa4, 0xbd, 0x04, 0x5d, 0x9a, 0xbd,
  0x2d, 0x5a, 0x8b, 0x3f, 0x45, 0x6f, 0xc5, 0x3e, 0x68, 0xab, 0x61, 0x3e,
  0x00, 0x76, 0x4c, 0x3f, 0xf9, 0xa3, 0x4a, 0x3e, 0xb0, 0xdb, 0xf4, 0x3e,
  0x26, 0x91, 0x6f, 0x3f, 0x41, 0xb6, 0x8f, 0xbd, 0x01, 0xe3, 0x1d, 0x3f,
  0x89, 0x78, 0xbd, 0x3e, 0xea, 0xbe, 0x27, 0x3f, 0x99, 0x32, 0xd9, 0x3f,
  0x68, 0x8d, 0x1a, 0x3d, 0x6e, 0x82, 0x53, 0x3f, 0x1d, 0xea, 0xde, 0x3e,
  0x61, 0x0a, 0xa9, 0x3e, 0x73, 0x30, 0x87, 0x3f, 0xaf, 0x1e, 0x4d, 0x3b,
  0x82, 0x8c, 0x41, 0xbe, 0xea, 0x98, 0x99, 0x3d, 0x03, 0xe5, 0xcd, 0x3f,
  0xd3, 0x14, 0x25, 0xbe, 0x5a, 0xfc, 0xa4, 0x3d, 0x21, 0xdb, 0x8f, 0x3c,
  0x9e, 0xf9, 0x96, 0x3e, 0x6e, 0x2d, 0xad, 0x3e, 0x25, 0x62, 0x86, 0x3e,
  0xeb, 0xd1, 0xda, 0x3d, 0x1a, 0xa8, 0x13, 0x3f, 0x8d, 0x0d, 0xdd, 0x3e,
  0xe7, 0x4e, 0xb0, 0x3d, 0xf0, 0xf8, 0x83, 0xbf, 0xf5, 0x35, 0x46, 0x3f,
  0xf0, 0xb9, 0xf1, 0x3f, 0x69, 0xe4, 0x64, 0x3f, 0x17, 0x8a, 0x2e, 0x3f,
  0xdd, 0xa5, 0xee, 0x3e, 0x64, 0xc2, 0xc5, 0x3e, 0xc2, 0x20, 0x5e, 0x3e,
  0x89, 0x22, 0x8a, 0x3b, 0x6f, 0xe7, 0x3b, 0xbc, 0x9f, 0x1c, 0x19, 0x3e,
  0x8e, 0x14, 0x93, 0xbe, 0x00, 0x67, 0x52, 0xbd, 0x0f, 0xe3, 0x53, 0x3d,
  0x0d, 0x71, 0xac, 0x3c, 0x2e, 0xf2, 0xa4, 0x3d, 0x28, 0x64, 0x48, 0xbe,
  0xe2, 0x72, 0xcc, 0x3a, 0x9e, 0x5e, 0x07, 0xbe, 0x96, 0xe3, 0xf3, 0xbc,
  0x31, 0xab, 0xb3, 0x3d, 0xc9, 0x86, 0x88, 0xbd, 0xa1, 0x90, 0xb8, 0x3d,
  0x2c, 0x78, 0xe1, 0xbd, 0x26, 0xa8, 0x23, 0xbd, 0x1b, 0x25, 0x1b, 0xbc,
  0xd7, 0x3f, 0x93, 0xbd, 0xea, 0xf7, 0x50, 0x3d, 0x90, 0xa0, 0x6b, 0xbe,
  0x86, 0x58, 0x81, 0x38, 0xb8, 0xc5, 0xca, 0x3b, 0xa4, 0xeb, 0x3f, 0xbd,
  0xaa, 0x0c, 0xf5, 0xbd, 0xb3, 0x3c, 0x81, 0x3d, 0x89, 0xfb, 0xcd, 0xbc,
  0x16, 0xb4, 0xc2, 0xbd, 0x9a, 0x84, 0xe2, 0xbd, 0xe4, 0x09, 0xc5, 0xbc,
  0x06, 0xd6, 0x56, 0xbd, 0x67, 0x3c, 0xf0, 0x3c, 0xb2, 0xef, 0x4d, 0xbe,
  0x3c, 0x63, 0x22, 0xbd, 0x60, 0x33, 0x58, 0xbe, 0xae, 0x49, 0x2b, 0xbd,
  0xdd, 0x81, 0x72, 0x3d, 0xa2, 0xed, 0x94, 0xbd, 0x34, 0x0a, 0xdc, 0x3c,
  0x29, 0x2c, 0xdd, 0xbd, 0xfb, 0x8b, 0xac, 0xbd, 0x7a, 0x75, 0x16, 0x3e,
  0x4a, 0x73, 0xa6, 0xbd, 0x6b, 0x31, 0x8f, 0x3c, 0xb4, 0x67, 0x9a, 0xbd,
  0x3e, 0xab, 0x6f, 0xbd, 0x41, 0xbe, 0x07, 0x3e, 0x98, 0xcf, 0xec, 0xbc,
  0x4a, 0xff, 0x91, 0x3d, 0xac, 0x3a, 0x59, 0xbd, 0xe3, 0x2d, 0x2d, 0x3e,
  0x8e, 0xd0, 0x81, 0xbd, 0x75, 0x1e, 0x32, 0x3e, 0x53, 0x2a, 0x2e, 0xbe,
  0xfa, 0x00, 0xc9, 0xbd, 0x1e, 0xf4, 0x96, 0xbd, 0x31, 0xee, 0xbb, 0x3d,
  0xa5, 0xa3, 0x79, 0xbd, 0x26, 0xdd, 0x36, 0xbe, 0xdd, 0xe4, 0x45, 0xbd,
  0x58, 0xd0, 0x3b, 0xbd, 0x60, 0x2e, 0x8d, 0xbe, 0x97, 0x59, 0x65, 0x3e,
  0x51, 0x90, 0x4c, 0x3f, 0x54, 0x4c, 0x21, 0xbf, 0x50, 0x91, 0x78, 0x3d,
  0xe0, 0xe4, 0x96, 0x3f, 0xff, 0xf3, 0x0e, 0x3f, 0x40, 0x2a, 0x1c, 0xbe,
  0x17, 0xc7, 0x13, 0xbe, 0x91, 0x03, 0xbb, 0x3e, 0x89, 0x3a, 0x2b, 0xbf,
  0x75, 0xdb, 0xd4, 0x3e, 0x09, 0x62, 0x5e, 0xbe, 0x3b, 0x1d, 0x82, 0xbd,
  0x8b, 0x3a, 0x05, 0x3f, 0x99, 0x2e, 0x6b, 0x3f, 0x68, 0x2d, 0x43, 0x3e,
  0x58, 0x24, 0x3c, 0x3f, 0x03, 0x6a, 0x28, 0x3f, 0xd6, 0x2d, 0xab, 0xbc,
  0x34, 0x54, 0x92, 0xbe, 0x62, 0x06, 0xab, 0xbe, 0x62, 0x86, 0x49, 0x3f,
  0x77, 0x8e, 0x50, 0xbe, 0xd3, 0x90, 0xe7, 0x3e, 0x1e, 0x1c, 0x42, 0x3f,
  0xe8, 0x6d, 0x60, 0xbe, 0x8c, 0xb1, 0xdf, 0x3e, 0x0b, 0xa2, 0xd4, 0x3e,
  0x2f, 0xfb, 0x62, 0x3f, 0x5c, 0x7b, 0x4b, 0x3e, 0x70, 0xe8, 0xd3, 0x3e,
  0xb6, 0x20, 0x4d, 0xbe, 0x38, 0xcd, 0x44, 0x3f, 0x15, 0x88, 0x46, 0x3d,
  0x80, 0xfd, 0x91, 0xbf, 0xfd, 0x49, 0xf9, 0x3e, 0x72, 0xa3, 0x02, 0x3f,
  0x6c, 0x80, 0x39, 0x3f, 0x5b, 0x8f, 0xfc, 0x3f, 0xc0, 0x95, 0x56, 0x3f,
  0x83, 0xcc, 0x69, 0x3e, 0x79, 0xf1, 0x62, 0xbf, 0xa4, 0x6d, 0xdb, 0x3b,
  0x0f, 0xe7, 0x5d, 0x3f, 0x8c, 0x9a, 0x4f, 0x3e, 0x69, 0x95, 0x06, 0xbf,
  0x22, 0x91, 0x34, 0x3e, 0x89, 0xa7, 0xc9, 0x3e, 0xcc, 0xed, 0x41, 0x3f,
  0x08, 0xd9, 0x39, 0xbe, 0x5b, 0xe8, 0x05, 0x3f, 0x36, 0xd4, 0x39, 0x3f,
  0x7f, 0x2f, 0x68, 0xbe, 0xd3, 0x75, 0x8c, 0x3f, 0x64, 0x34, 0xdc, 0x3d,
  0x64, 0xb9, 0x2d, 0x3e, 0x45, 0xd4, 0xca, 0xbe, 0xce, 0x7e, 0xd0, 0x3e,
  0x87, 0xd1, 0xf5, 0x3e, 0xe9, 0xfb, 0x50, 0xbf, 0x92, 0x32, 0xe7, 0x3f,
  0x4e, 0x3e, 0xba, 0x3d, 0x29, 0xd3, 0x8c, 0x3f, 0x9c, 0xf2, 0xc5, 0x3d,
  0xf7, 0x66, 0xc9, 0x3e, 0xaf, 0xae, 0x6d, 0x3d, 0xc0, 0xa9, 0xc7, 0xbd,
  0xba, 0x8a, 0xe2, 0xbc, 0x73, 0x60, 0xed, 0x3d, 0x06, 0x27, 0x0e, 0x3e,
  0x5e, 0x55, 0x34, 0xbe, 0x67, 0x4c, 0xac, 0x39, 0x3d, 0x9a, 0x45, 0xbe,
  0xfe, 0xdc, 0x47, 0xbe, 0xd9, 0x09, 0x9b, 0xbd, 0xa7, 0xcb, 0x62, 0xbd,
  0xe0, 0x8e, 0x09, 0xbd, 0x43, 0x5b, 0xc4, 0xbc, 0xa2, 0xae, 0x8d, 0x3e,
  0x71, 0xd0, 0xd1, 0x3d, 0x69, 0x14, 0x9a, 0x3d, 0xc5, 0xe5, 0xf2, 0x3d,
  0xaf, 0xc6, 0x14, 0xbe, 0x3e, 0x0b, 0x38, 0xbd, 0xa9, 0x83, 0x34, 0x3e,
  0xac, 0xd2, 0x15, 0xbe, 0x14, 0xab, 0xc4, 0x3d, 0x45, 0x5a, 0xfd, 0x3d,
  0x6f, 0xf1, 0x2a, 0xbd, 0x83, 0x14, 0x04, 0xbe, 0xe3, 0xce, 0x82, 0x3c,
  0x3b, 0xef, 0xfd, 0xbd, 0x14, 0x6b, 0x80, 0x3e, 0x9e, 0x7c, 0x7e, 0xbe,
  0x08, 0x70, 0x7a, 0xbd, 0x1a, 0xbb, 0xe0, 0xbc, 0xb4, 0x55, 0x47, 0xbd,
  0x68, 0x0c, 0x6b, 0xbe, 0xbe, 0x4d, 0x84, 0x3e, 0x97, 0xa0, 0xfb, 0x3c,
  0x09, 0x01, 0xb1, 0x3d, 0x68, 0x05, 0x2f, 0xbe, 0x2e, 0xef, 0xf9, 0xbc,
  0x4d, 0x9b, 0x36, 0xbe, 0xcc, 0xf3, 0x02, 0xbc, 0xad, 0xbf, 0x21, 0xbd,
  0x94, 0xea, 0x4b, 0xbe, 0xe3, 0xb7, 0xfa, 0x3d, 0xd9, 0x69, 0x05, 0xbe,
  0xae, 0xb6, 0xe7, 0xbd, 0x98, 0x3a, 0xed, 0x3b, 0x0d, 0xc5, 0x48, 0xbe,
  0xf9, 0x91, 0x9f, 0xbd, 0xdb, 0x63, 0x0c, 0xbe, 0x5a, 0x8b, 0xa0, 0xbd,
  0x70, 0x32, 0x58, 0x3d, 0x43, 0x5e, 0x64, 0xbd, 0x9c, 0x61, 0xe1, 0x3d,
  0x54, 0x49, 0xc6, 0x3b, 0xaa, 0x5d, 0xce, 0x3c, 0x50, 0xdd, 0xc3, 0x3d,
  0x06, 0x06, 0x84, 0xbb, 0x00, 0x19, 0x8b, 0xbd, 0x20, 0x02, 0x55, 0xbe,
  0xed, 0xaf, 0xb7, 0xbd, 0xf2, 0x09, 0x72, 0xbe, 0xa7, 0x6d, 0xc4, 0xbc,
  0x06, 0x2e, 0xd1, 0xbd, 0xb8, 0x5b, 0x0b, 0xbe, 0xad, 0xe9, 0xb5, 0x3f,
  0x1f, 0x3b, 0xaf, 0x3e, 0x54, 0x52, 0xe2, 0x3e, 0xb1, 0x7d, 0x6a, 0x3f,
  0x8f, 0x53, 0x13, 0x3f, 0xaf, 0x32, 0x82, 0x3d, 0x32, 0xf7, 0x08, 0x3e,
  0x48, 0xf3, 0xbb, 0x3e, 0x6c, 0x58, 0x46, 0x3e, 0x65, 0x8a, 0x0b, 0x3f,
  0xc8, 0xf5, 0xfc, 0x3e, 0xb3, 0x23, 0x06, 0xbe, 0xd0, 0xf8, 0xc1, 0x3e,
  0x63, 0x20, 0x99, 0x3d, 0x3f, 0xa0, 0x2c, 0x3f, 0xe4, 0xef, 0x1b, 0x3f,
  0x1c, 0x97, 0x86, 0xbf, 0x12, 0x84, 0x4c, 0xbe, 0x96, 0x68, 0x12, 0x3f,
  0x81, 0x44, 0x0d, 0x3f, 0x18, 0x9d, 0xd3, 0x3e, 0x6c, 0x65, 0x2a, 0x3f,
  0x5f, 0xd4, 0x32, 0x3f, 0x64, 0xc9, 0xf6, 0x3e, 0xf8, 0x10, 0x62, 0xbd,
  0x70, 0x28, 0x6d, 0xbe, 0x74, 0x26, 0xa4, 0x3f, 0x98, 0xac, 0xd4, 0x3f,
  0x3b, 0xbd, 0x81, 0xbc, 0x83, 0xb6, 0x82, 0x3f, 0x3a, 0xfe, 0x0c, 0x3f,
  0xf1, 0x8b, 0xd1, 0x3f, 0x1b, 0xa7, 0xa2, 0x3f, 0x7d, 0x0e, 0x7d, 0x3f,
  0xab, 0x73, 0x14, 0x3f, 0xdd, 0x19, 0xe1, 0x3f, 0xcd, 0xae, 0x35, 0x3f,
  0x66, 0x3c, 0xa1, 0x3f, 0xc5, 0x81, 0x8d, 0x3e, 0xc2, 0x4c, 0x95, 0x3f,
  0x7e, 0x88, 0xba, 0x3e, 0x7b, 0x28, 0x97, 0xbe, 0x18, 0x9e, 0x57, 0x3f,
  0x84, 0x13, 0x2f, 0xbf, 0xb8, 0xd7, 0x13, 0x3d, 0xbb, 0xd8, 0x02, 0xbf,
  0x5b, 0xfb, 0xf7, 0x3e, 0xcd, 0xc4, 0x22, 0x3f, 0x5a, 0x59, 0x70, 0x3d,
  0x7d, 0x33, 0xd1, 0xbe, 0xea, 0xfb, 0x71, 0x3f, 0x5d, 0xeb, 0xc7, 0xbe,
  0x21, 0x03, 0x25, 0x3f, 0x06, 0x86, 0x75, 0x3e, 0xa9, 0x7d, 0x5f, 0x3e,
  0x10, 0x99, 0xe1, 0xbd, 0xa2, 0xdb, 0xc4, 0x3e, 0x3d, 0xf8, 0xcf, 0xbe,
  0x45, 0x83, 0x51, 0x3f, 0x8e, 0xba, 0xd6, 0x3f, 0x58, 0x86, 0xa9, 0x3f,
  0x17, 0x9f, 0x62, 0x3e, 0x2d, 0x75, 0x4a, 0xbe, 0x99, 0xb0, 0x46, 0x3f,
  0x42, 0x4b, 0x81, 0xbf, 0x67, 0x4b, 0x5f, 0xbd, 0x30, 0x82, 0xab, 0x3e,
  0xaa, 0xfd, 0x54, 0xbe, 0xc4, 0xee, 0x84, 0x3f, 0xf2, 0x26, 0x32, 0x3e,
  0xd4, 0xbb, 0x11, 0x3e, 0x42, 0x56, 0x3f, 0x3e, 0x8f, 0x0b, 0x4e, 0x3e,
  0x7a, 0x97, 0xbc, 0x3c, 0xdc, 0x84, 0x8f, 0x3c, 0x9b, 0xe4, 0x49, 0x3e,
  0xef, 0x7a, 0xb7, 0xbd, 0xa3, 0xa9, 0x73, 0x3f, 0x51, 0x68, 0xc0, 0xbe,
  0x83, 0x5d, 0xba, 0x3a, 0xec, 0x41, 0xc3, 0xbd, 0xc1, 0x6e, 0x06, 0x3d,
  0xc5, 0x6d, 0x34, 0xbf, 0x6d, 0xee, 0xce, 0xbd, 0x21, 0x86, 0x85, 0x3e,
  0x93, 0x0d, 0x06, 0x3e, 0x5e, 0x68, 0x00, 0x3e, 0xfd, 0x71, 0x6a, 0x3e,
  0x91, 0xf5, 0x9a, 0xbd, 0x8b, 0x05, 0xff, 0x3d, 0x95, 0x62, 0x17, 0x3f,
  0xab, 0x95, 0xb8, 0xbe, 0xee, 0x96, 0x10, 0x3e, 0xfd, 0xb7, 0xfd, 0x3e,
  0x43, 0x65, 0xcd, 0xbe, 0xbc, 0x3c, 0xc0, 0xbf, 0xff, 0x90, 0x86, 0x3e,
  0xaa, 0x8f, 0xb5, 0xbd, 0x6a, 0xa4, 0x95, 0xbd, 0xed, 0xfc, 0x89, 0xbf,
  0x34, 0x71, 0x35, 0x3e, 0xbf, 0xea, 0x6d, 0xbe, 0xb3, 0xde, 0x61, 0xbe,
  0xda, 0xd8, 0xd4, 0xbe, 0xc0, 0xdd, 0x8e, 0xbe, 0xb7, 0x35, 0xd4, 0x3d,
  0x33, 0xc9, 0x93, 0x3e, 0xc0, 0xb0, 0xab, 0x3e, 0xbb, 0x13, 0x0f, 0x3f,
  0x72, 0xe3, 0xd0, 0xbd, 0x4f, 0x24, 0xe9, 0xbd, 0xb6, 0xd3, 0x3f, 0xbf,
  0x2d, 0x73, 0x19, 0x3e, 0x73, 0x3e, 0x1e, 0xbf, 0x1b, 0x33, 0xf6, 0x3d,
  0xd5, 0x9d, 0x7f, 0x3e, 0xef, 0xc7, 0x7a, 0xbe, 0x9a, 0xec, 0x67, 0xbe,
  0xb5, 0x4e, 0xe9, 0x3d, 0x77, 0xe9, 0x57, 0x3e, 0x3e, 0x77, 0xc2, 0xbe,
  0x9a, 0xba, 0x87, 0x3e, 0x07, 0x7b, 0xb4, 0x3e, 0x6c, 0x9d, 0xc4, 0xbe,
  0x7e, 0x79, 0x8a, 0x3e, 0x3b, 0xa4, 0x65, 0xbf, 0xa5, 0xc0, 0x4f, 0x3e,
  0xa4, 0x6d, 0x4e, 0x3e, 0x52, 0x14, 0xe0, 0xbe, 0x80, 0xc9, 0xc9, 0x3d,
  0x96, 0x28, 0x2a, 0x3f, 0xcf, 0xfd, 0x56, 0x3e, 0x41, 0xdd, 0x98, 0x3e,
  0x50, 0xc0, 0x3e, 0xbd, 0xf3, 0x65, 0x75, 0x3e, 0x40, 0xe6, 0x8c, 0x3e,
  0x7b, 0xa1, 0x17, 0xbe, 0x42, 0x47, 0x99, 0x3e, 0x61, 0x6f, 0x2d, 0x3e,
  0xfd, 0x1f, 0xeb, 0x3d, 0x36, 0xdc, 0x83, 0x3e, 0xe9, 0x07, 0x1b, 0x3e,
  0x03, 0xcb, 0xe9, 0xbc, 0x46, 0xd9, 0x12, 0xbe, 0xb5, 0x98, 0xdd, 0x3e,
  0x39, 0x63, 0x34, 0xbe, 0x11, 0xbf, 0xc8, 0x3e, 0x91, 0x7d, 0xc7, 0x3e,
  0x58, 0x47, 0xb2, 0x3f, 0xc3, 0x82, 0x4a, 0x3e, 0x7b, 0xc6, 0x26, 0x3e,
  0x2f, 0x3d, 0x71, 0x3e, 0xf3, 0x61, 0x40, 0x3d, 0xd2, 0x28, 0x8a, 0xbe,
  0xe1, 0x57, 0x4f, 0x3f, 0x53, 0x7a, 0xfc, 0xbb, 0x51, 0x65, 0xfa, 0x3e,
  0x5f, 0x83, 0x93, 0x3f, 0xb8, 0x1f, 0x37, 0x3f, 0x8f, 0x4d, 0xc4, 0xbe,
  0x38, 0x2e, 0x94, 0x3f, 0x88, 0x19, 0x30, 0x3f, 0x62, 0x94, 0xa8, 0x3e,
  0x94, 0x7b, 0xa2, 0xbe, 0x07, 0x0b, 0x29, 0xbd, 0xba, 0xd2, 0x9e, 0x3f,
  0x08, 0x5d, 0x16, 0xbe, 0xa2, 0x42, 0xb9, 0x3e, 0x07, 0x8a, 0x27, 0xbd,
  0x4e, 0x86, 0xe9, 0x3c, 0x28, 0x18, 0x53, 0x3e, 0xfe, 0x27, 0x29, 0xbe,
  0xb2, 0x91, 0xe3, 0x3d, 0x20, 0x58, 0x4b, 0x3e, 0xef, 0x1d, 0xac, 0xbe,
  0xa4, 0x76, 0x5f, 0xbe, 0x24, 0xdf, 0x90, 0xbd, 0x29, 0x64, 0xd4, 0x3e,
  0x26, 0x39, 0xbe, 0xbd, 0x4e, 0x55, 0x3f, 0x3d, 0x0d, 0xdf, 0x06, 0xbe,
  0x5e, 0xfb, 0x56, 0x3e, 0x5a, 0xe4, 0x01, 0xbf, 0xd0, 0x79, 0x66, 0x3d,
  0x47, 0x44, 0x57, 0x3b, 0x61, 0x8b, 0x03, 0x3f, 0xcc, 0x33, 0x05, 0x3f,
  0xf1, 0x4c, 0xed, 0x3f, 0x11, 0xc1, 0x86, 0x3e, 0x5f, 0x6d, 0xc3, 0xbe,
  0xf6, 0x24, 0x07, 0xbf, 0xca, 0xb4, 0xc6, 0x3e, 0xc3, 0xc7, 0xcc, 0x3c,
  0x93, 0x13, 0x58, 0xbf, 0x88, 0x9b, 0x1d, 0x3f, 0x80, 0xcd, 0x83, 0x3e,
  0x18, 0x43, 0x73, 0x3f, 0xda, 0x33, 0x28, 0xbe, 0xda, 0x8f, 0x8c, 0xbd,
  0xda, 0xcd, 0x3d, 0x3e, 0x7e, 0xf1, 0x01, 0xbf, 0x54, 0x9b, 0x8d, 0x3e,
  0xf2, 0xc5, 0x10, 0x3e, 0x3c, 0xf4, 0xb0, 0x3d, 0x52, 0x8f, 0x2c, 0x3d,
  0x9a, 0x6b, 0x07, 0x3f, 0x52, 0xdc, 0x41, 0x3e, 0xbe, 0x4f, 0xe9, 0x3e,
  0xc6, 0x7c, 0xed, 0x3e, 0x60, 0x8c, 0xe7, 0xbd, 0x47, 0x8d, 0x0b, 0xbe,
  0x00, 0xf1, 0x0c, 0xbf, 0xd2, 0x1b, 0x8e, 0x3f, 0x7b, 0x3a, 0x09, 0x3f,
  0x23, 0x11, 0x18, 0x3f, 0xd2, 0xed, 0x6a, 0xbd, 0x23, 0x15, 0x89, 0xbe,
  0xeb, 0xaf, 0xd8, 0x3d, 0xad, 0xb2, 0x8c, 0x3f, 0xca, 0xf9, 0x9c, 0x3f,
  0x6e, 0x7c, 0x0d, 0x3f, 0xa1, 0xf9, 0xb8, 0x3f, 0xd6, 0x14, 0xf5, 0xbd,
  0xec, 0x5e, 0x05, 0x3e, 0xbc, 0x21, 0xa7, 0x3f, 0x86, 0x3b, 0x10, 0x3f,
  0xbb, 0x0e, 0x0e, 0x3f, 0xe6, 0x0c, 0xcf, 0x3e, 0x9a, 0xb3, 0x28, 0x3f,
  0xd5, 0x49, 0xad, 0x3f, 0xa1, 0x08, 0x10, 0x3f, 0x5d, 0xab, 0x8f, 0x3e,
  0xed, 0x78, 0xb3, 0xbe, 0x08, 0x07, 0x5c, 0xbe, 0xef, 0xae, 0x12, 0x3f,
  0x70, 0xd9, 0x1a, 0x3f, 0xee, 0xcb, 0x1f, 0xbd, 0xd0, 0x2a, 0x30, 0x3e,
  0x4a, 0x10, 0x3f, 0xbd, 0xd6, 0xaa, 0x4e, 0x3f, 0x9e, 0x64, 0xab, 0x3d,
  0xbf, 0x26, 0x81, 0x3e, 0x8c, 0xed, 0xea, 0x3d, 0x02, 0x3a, 0xc3, 0x3e,
  0x5e, 0x4e, 0x96, 0xbe, 0xcb, 0xfe, 0xfc, 0x3d, 0xd4, 0x5c, 0x00, 0xbe,
  0xfa, 0xda, 0x45, 0x3e, 0xa1, 0xb4, 0x93, 0xbc, 0x90, 0x19, 0x17, 0x3f,
  0x58, 0x00, 0x55, 0x3f, 0x2b, 0x4c, 0xcd, 0x3f, 0x49, 0x4e, 0x58, 0x3e,
  0x55, 0x6a, 0xfb, 0x3d, 0x9f, 0x68, 0xe3, 0x3c, 0x24, 0x37, 0x4a, 0x3e,
  0x10, 0xe0, 0x45, 0x3f, 0xb6, 0x4e, 0xd8, 0x3e, 0xcc, 0xf8, 0x84, 0x3f,
  0x4f, 0x38, 0xc2, 0xbd, 0x35, 0x6f, 0x49, 0xbe, 0x0c, 0x16, 0x8d, 0xbc,
  0x3a, 0xfd, 0x37, 0xbd, 0xae, 0x11, 0xa9, 0x3e, 0x0e, 0xcc, 0x33, 0x3f,
  0xe8, 0xab, 0xb2, 0x3c, 0xd3, 0xf3, 0xc1, 0xbe, 0xba, 0x8e, 0xe5, 0x3c,
  0xd5, 0x18, 0x7c, 0x3d, 0xb4, 0x3b, 0x29, 0x3c, 0x78, 0x6b, 0x88, 0x3e,
  0x84, 0x4a, 0xf5, 0x3d, 0xb9, 0xa4, 0x17, 0xbd, 0x47, 0xd8, 0x5b, 0xbe,
  0xc2, 0x8b, 0x27, 0x3e, 0xe3, 0xa7, 0x25, 0xbf, 0xe3, 0x6b, 0x5f, 0x3f,
  0x4f, 0x39, 0xbf, 0x3e, 0xe3, 0x87, 0xf0, 0x3e, 0xfc, 0xa0, 0x05, 0xbd,
  0x96, 0xfa, 0x09, 0x3e, 0x29, 0x1f, 0x8f, 0x3e, 0x2d, 0x17, 0x18, 0x3f,
  0xf7, 0x78, 0xb0, 0x3b, 0xc3, 0x8b, 0x1f, 0x3f, 0xd6, 0x95, 0x89, 0x3f,
  0xca, 0x38, 0x91, 0x3e, 0xc5, 0x84, 0xa3, 0x3f, 0x61, 0x50, 0x92, 0x3f,
  0x55, 0x1f, 0xec, 0x3e, 0x13, 0xd3, 0x99, 0x3e, 0x9d, 0x93, 0x82, 0x3f,
  0x33, 0x08, 0x05, 0xbf, 0x91, 0x8c, 0xa1, 0x3e, 0x09, 0x02, 0xc1, 0x3e,
  0xf3, 0x42, 0x87, 0xbf, 0x27, 0x32, 0x1a, 0x3f, 0xad, 0x8b, 0x8f, 0x3e,
  0x00, 0xfd, 0xc2, 0x3e, 0xa9, 0xd8, 0x3e, 0x3e, 0x91, 0xf6, 0x50, 0xbf,
  0x2d, 0x7f, 0x1c, 0x3f, 0xfb, 0x2c, 0xb4, 0x3e, 0x52, 0x65, 0xf6, 0x3e,
  0x85, 0xd6, 0x0a, 0x3d, 0x66, 0xe9, 0xf3, 0x3e, 0x7c, 0x8a, 0xe2, 0x3d,
  0x36, 0x1d, 0xb1, 0x3c, 0x4c, 0x6d, 0x59, 0x3e, 0xd5, 0x48, 0x0e, 0xbd,
  0x94, 0xd8, 0x11, 0x3f, 0x90, 0x0a, 0x5c, 0x3e, 0x5e, 0xc7, 0x8d, 0xbe,
  0x37, 0x82, 0x73, 0xbf, 0x40, 0x5d, 0x11, 0x3f, 0xa4, 0x13, 0x76, 0x3f,
  0x79, 0xe7, 0x39, 0xbf, 0x0f, 0xc0, 0x1c, 0xbf, 0x31, 0x12, 0x13, 0x3f,
  0x6e, 0x8e, 0x12, 0x3d, 0x9c, 0x91, 0x8f, 0xbf, 0x71, 0xf2, 0x76, 0xbd,
  0x45, 0x22, 0xbb, 0xbe, 0x50, 0xc7, 0x84, 0xbe, 0xce, 0x90, 0x4d, 0xbf,
  0x2c, 0xa4, 0x67, 0xbb, 0xb3, 0x53, 0x8a, 0xbd, 0x7a, 0xe8, 0x43, 0xbe,
  0x87, 0xaa, 0x5c, 0x3d, 0x38, 0x9b, 0x35, 0x3e, 0x72, 0x75, 0x15, 0xbf,
  0x8f, 0xcb, 0x25, 0x3e, 0x08, 0x49, 0x8d, 0x3e, 0x97, 0x55, 0x96, 0xbe,
  0x33, 0x46, 0x8e, 0x3e, 0x13, 0xee, 0x3a, 0x3e, 0x71, 0xc8, 0x08, 0xbe,
  0xc9, 0x41, 0x4f, 0xbd, 0x82, 0x84, 0x66, 0xbe, 0xe6, 0x57, 0x5c, 0x3d,
  0xad, 0xdf, 0x26, 0xbf, 0xea, 0xdd, 0xd0, 0xbb, 0xb3, 0xa4, 0xbf, 0x3d,
  0xae, 0x2d, 0xc7, 0xbe, 0x72, 0xc5, 0x22, 0x3e, 0xcf, 0x17, 0xb6, 0x3e,
  0x0d, 0x3e, 0x14, 0xbf, 0xe2, 0x32, 0xa0, 0xbf, 0xf1, 0x45, 0x09, 0x3d,
  0x0a, 0x1d, 0x11, 0xbf, 0xfa, 0x63, 0x9c, 0xbe, 0x0f, 0xc2, 0xca, 0xbf,
  0x3c, 0xca, 0x9b, 0xbe, 0xe4, 0xfe, 0x2e, 0xbf, 0x47, 0xd6, 0xd6, 0xbe,
  0xfa, 0x51, 0xae, 0xbf, 0xd1, 0xd8, 0x3e, 0xbe, 0xc7, 0x24, 0x98, 0xbf,
  0xd5, 0xdd, 0x6e, 0xbd, 0x2a, 0xc3, 0x47, 0x3f, 0x76, 0x50, 0x45, 0xbd,
  0x4a, 0xa9, 0xd1, 0xbe, 0xc5, 0x0b, 0xf7, 0x3e, 0xa9, 0x5c, 0x46, 0xbf,
  0x0f, 0x5e, 0x22, 0x3e, 0x72, 0xe6, 0x61, 0xbe, 0xb4, 0x4a, 0x48, 0xbe,
  0x86, 0xec, 0x8d, 0xbe, 0x63, 0x08, 0x8a, 0xbd, 0xd2, 0xf7, 0xc0, 0xbe,
  0x72, 0xa0, 0x1d, 0xbf, 0xc6, 0x9f, 0x0e, 0x3d, 0x6e, 0x1f, 0xab, 0xbe,
  0x2c, 0xea, 0xcb, 0x3e, 0xe5, 0x5a, 0x3c, 0x3c, 0xb8, 0x43, 0x94, 0xbe,
  0x14, 0x80, 0x1e, 0x3f, 0x0c, 0x2a, 0x19, 0x3d, 0x4f, 0x3c, 0x19, 0xbe,
  0x6f, 0xbc, 0x03, 0xc0, 0x22, 0xc2, 0x46, 0xbd, 0x69, 0x69, 0xf7, 0x3f,
  0xfd, 0x91, 0xdf, 0x3c, 0xe5, 0xd0, 0xaf, 0xbe, 0x67, 0xc0, 0xa0, 0x3f,
  0x95, 0x86, 0x28, 0x3f, 0x7c, 0xe1, 0x56, 0x3f, 0xb1, 0x69, 0x20, 0x3f,
  0x56, 0x2a, 0x87, 0x3e, 0x89, 0xbc, 0x76, 0xbc, 0xbf, 0x28, 0x95, 0xbe,
  0x87, 0x02, 0xb7, 0x3f, 0x44, 0xc2, 0xac, 0x3e, 0x8a, 0x21, 0xa0, 0x3e,
  0x5b, 0xba, 0x2b, 0xbd, 0x63, 0xd8, 0xdb, 0xbe, 0xab, 0xfe, 0xcf, 0x3e,
  0x55, 0x12, 0x2b, 0x3f, 0x9f, 0x2b, 0x03, 0x3f, 0x39, 0x2a, 0x59, 0x3e,
  0xc1, 0x9c, 0x36, 0x3f, 0x42, 0x74, 0x69, 0x3d, 0x3a, 0xc9, 0x5b, 0x3e,
  0x1e, 0x28, 0x1a, 0x3e, 0xc4, 0xd8, 0xfe, 0x3e, 0x2a, 0x6c, 0xe3, 0x3d,
  0xa4, 0x81, 0x95, 0x3f, 0x99, 0x9b, 0x84, 0x3f, 0xf5, 0x9d, 0xf1, 0xbe,
  0x9e, 0xeb, 0x17, 0x3e, 0x68, 0x7f, 0x96, 0x3f, 0xdc, 0x71, 0xe7, 0x3f,
  0x7f, 0x39, 0xcc, 0x3e, 0xd8, 0xc5, 0x8a, 0x3f, 0xe7, 0x29, 0xd4, 0x3e,
  0xce, 0x6d, 0xda, 0x3f, 0x5e, 0x74, 0x61, 0x3f, 0x5d, 0x76, 0x21, 0x3f,
  0x77, 0x52, 0x47, 0x3f, 0x29, 0xb5, 0xf7, 0x3f, 0xec, 0x0f, 0xf7, 0x3f,
  0x05, 0x28, 0xc2, 0x3f, 0x84, 0xc9, 0x8c, 0x3c, 0x4b, 0xff, 0x73, 0x3f,
  0xc6, 0x70, 0xd8, 0x3e, 0x9d, 0x79, 0x34, 0x3e, 0x0c, 0xcc, 0x83, 0x3f,
  0xf7, 0x27, 0x03, 0xbe, 0x82, 0x9d, 0xdd, 0xbe, 0x2e, 0x59, 0xc7, 0x3e,
  0xfe, 0x9d, 0xac, 0x3f, 0x28, 0xe6, 0x12, 0xbe, 0x27, 0x39, 0x2d, 0xbd,
  0xfe, 0xa3, 0x5d, 0x3d, 0xc8, 0xe1, 0xd9, 0xbc, 0xa3, 0xa3, 0x9d, 0xbd,
  0x8c, 0xce, 0x71, 0x3f, 0x2b, 0x15, 0x1f, 0x3d, 0xf5, 0x2e, 0x8b, 0x3e,
  0x73, 0xb3, 0xbd, 0x3e, 0x31, 0xa8, 0x8c, 0xbf, 0x9c, 0xa8, 0x89, 0xbf,
  0x7d, 0x02, 0x61, 0x3f, 0x2a, 0x77, 0xa1, 0x3f, 0xea, 0x17, 0x61, 0x3f,
  0x7c, 0x95, 0x0f, 0x3f, 0xe3, 0x18, 0xa9, 0x3d, 0x83, 0xdb, 0x43, 0x3e,
  0x7c, 0xa1, 0x06, 0xbc, 0x5a, 0x61, 0x04, 0x3c, 0x56, 0x70, 0xdd, 0xbd,
  0x99, 0xb0, 0x23, 0xbe, 0x6f, 0xa3, 0x94, 0x3d, 0x8a, 0x32, 0xb7, 0xbd,
  0xdb, 0x5a, 0x3a, 0xbe, 0x04, 0x1d, 0x1a, 0xbe, 0x47, 0x0a, 0xda, 0xbd,
  0x2e, 0x5c, 0x3e, 0xbe, 0x89, 0x32, 0xad, 0xbc, 0x57, 0xd7, 0x8b, 0xbd,
  0x54, 0x58, 0x9b, 0xbe, 0x24, 0xb7, 0x13, 0xbe, 0x25, 0x27, 0xf3, 0xbd,
  0xcf, 0xad, 0x32, 0xbe, 0xe9, 0x63, 0xba, 0xbd, 0x5a, 0x97, 0xa5, 0xbb,
  0xac, 0xe2, 0xc6, 0x3d, 0x86, 0xa6, 0x50, 0x3e, 0x90, 0x87, 0xe6, 0x3d,
  0xe1, 0xed, 0xbb, 0xbd, 0x53, 0x24, 0x81, 0xbe, 0x75, 0xae, 0xc6, 0xbc,
  0xb4, 0x63, 0x06, 0xbe, 0x7b, 0x0c, 0xae, 0xbc, 0x2e, 0x5d, 0x18, 0xbe,
  0xee, 0x4a, 0xab, 0x3d, 0x92, 0x14, 0xa7, 0x3d, 0xb6, 0xba, 0x5d, 0x3e,
  0x23, 0xdb, 0x40, 0xbd, 0x8d, 0x8a, 0x9c, 0x3d, 0x9a, 0x16, 0x4c, 0x3e,
  0x94, 0xd8, 0xb8, 0xbd, 0xec, 0x69, 0xaa, 0x3d, 0x17, 0x8e, 0x1d, 0x3d,
  0xd8, 0x62, 0xf4, 0xbd, 0xfa, 0x43, 0x04, 0x3e, 0x57, 0x2e, 0xc5, 0x3d,
  0xb3, 0xa3, 0x1c, 0x3c, 0xfb, 0x7b, 0x96, 0xbe, 0x6f, 0x9a, 0x81, 0xbe,
  0x41, 0x61, 0x60, 0xbe, 0x9f, 0x4f, 0x87, 0xbe, 0xa5, 0x4e, 0x67, 0xbe,
  0xb6, 0xd1, 0xce, 0x3d, 0x73, 0x77, 0x2c, 0xbe, 0x36, 0xc4, 0x9e, 0xbb,
  0x07, 0x90, 0x93, 0xbd, 0x08, 0x38, 0x33, 0xbd, 0x7f, 0xc3, 0x5b, 0x3d,
  0xec, 0xcb, 0xb1, 0x3c, 0x5b, 0xa0, 0x84, 0x3d, 0xae, 0x36, 0xad, 0x3d,
  0x8e, 0x57, 0x95, 0x3d, 0xc1, 0x13, 0x13, 0x3e, 0x40, 0x6f, 0xa9, 0xbd,
  0x62, 0xef, 0x9a, 0x3d, 0x01, 0x19, 0x21, 0xbe, 0x3a, 0x61, 0x16, 0xbe,
  0x17, 0x06, 0xc7, 0x3d, 0xf3, 0xf2, 0x84, 0xbe, 0xac, 0x67, 0x18, 0x3e,
  0x24, 0x5a, 0x3c, 0xbd, 0x11, 0x95, 0x97, 0xbe, 0x8e, 0x5f, 0xc5, 0xbc,
  0x0e, 0x6d, 0x4e, 0x3d, 0x3a, 0xaa, 0x45, 0x3d, 0x71, 0x31, 0xc7, 0x3d,
  0x66, 0xe1, 0x6c, 0xbe, 0xe4, 0xe9, 0xb8, 0x3d, 0x0f, 0xf1, 0x84, 0xbd,
  0x44, 0x03, 0xc0, 0x3d, 0x2d, 0xba, 0x73, 0xbd, 0xf6, 0xea, 0xa1, 0xbe,
  0xb1, 0x1f, 0x21, 0xbe, 0xc0, 0x13, 0x93, 0xbd, 0x09, 0x58, 0x00, 0x3e,
  0x99, 0xef, 0xaf, 0x3d, 0x7e, 0x18, 0x82, 0x3e, 0xcb, 0xbf, 0xa5, 0xbd,
  0x3a, 0x48, 0x5c, 0x3e, 0x1e, 0xfd, 0x73, 0xbe, 0xa5, 0x45, 0x83, 0x3d,
  0x13, 0xc9, 0xce, 0xba, 0xc1, 0x2f, 0x47, 0xbd, 0x35, 0x37, 0x18, 0x3c,
  0x33, 0x83, 0x75, 0x3d, 0xa5, 0x42, 0x67, 0xbe, 0x19, 0x05, 0xda, 0xbd,
  0x14, 0xda, 0x23, 0x3d, 0x3f, 0x53, 0x47, 0x3e, 0x2e, 0x21, 0x65, 0xbd,
  0xfa, 0xbf, 0x86, 0xbe, 0x23, 0xa2, 0x08, 0x3e, 0x02, 0xe8, 0x42, 0xbe,
  0x32, 0x76, 0x39, 0xbe, 0x96, 0xb7, 0x29, 0x3e, 0xfa, 0xdb, 0x6a, 0x3d,
  0x66, 0x3f, 0x0a, 0xbd, 0x5c, 0x1e, 0x0b, 0xbe, 0x83, 0x1c, 0xcc, 0xbd,
  0xb3, 0x84, 0x0c, 0xbb, 0xbc, 0x35, 0x18, 0x3e, 0x26, 0xce, 0x67, 0xbe,
  0x35, 0xa4, 0x1b, 0x3e, 0x50, 0x79, 0x88, 0xbd, 0xb4, 0x29, 0x59, 0x3e,
  0xfc, 0x63, 0x79, 0x3c, 0x59, 0x7a, 0x6b, 0xbe, 0xfe, 0x24, 0x82, 0xbc,
  0xef, 0x06, 0xcf, 0xbd, 0xb4, 0x35, 0x02, 0x3d, 0xd5, 0x68, 0x2a, 0x3e,
  0xfb, 0x96, 0x09, 0xbe, 0x8c, 0xee, 0x1e, 0xbd, 0x81, 0xe7, 0x2d, 0x3e,
  0x9d, 0x92, 0x2d, 0xbe, 0xac, 0xc1, 0x85, 0xbd, 0x65, 0x5b, 0x84, 0xbe,
  0x8f, 0xff, 0x07, 0x3e, 0x6a, 0x5f, 0xa6, 0xbd, 0xbd, 0x51, 0x91, 0x3d,
  0xff, 0x84, 0xd7, 0x3c, 0x62, 0x9b, 0x11, 0x3c, 0xfe, 0x5d, 0x5d, 0xbd,
  0x08, 0x01, 0x0c, 0x3e, 0xbb, 0x07, 0xb4, 0x3c, 0x72, 0xe2, 0xb3, 0x3d,
  0x3c, 0x94, 0xb4, 0xbd, 0x83, 0x49, 0xaf, 0xbe, 0x83, 0xbc, 0x7c, 0x3f,
  0x06, 0xae, 0xa6, 0xbf, 0x4c, 0x33, 0xf2, 0x3c, 0x60, 0xc2, 0xbd, 0xbe,
  0x46, 0x66, 0x3f, 0x3f, 0xb2, 0x67, 0x6d, 0xbb, 0xc9, 0xcd, 0x15, 0x3f,
  0xd6, 0xb9, 0x3b, 0x3e, 0x93, 0x11, 0x02, 0x3f, 0x77, 0xf9, 0x8c, 0x3e,
  0x49, 0x78, 0x7c, 0x3f, 0x7a, 0x75, 0x09, 0x3f, 0x04, 0x69, 0x09, 0x3f,
  0x4b, 0xba, 0x12, 0xc0, 0x33, 0xcc, 0x00, 0x3b, 0xc5, 0x20, 0x89, 0x3d,
  0xa8, 0x6c, 0xda, 0x3d, 0x35, 0xf8, 0x1c, 0xbf, 0xba, 0x53, 0xec, 0x3d,
  0x5d, 0xdb, 0xe0, 0x3d, 0xc0, 0xd1, 0x15, 0x3f, 0x3b, 0x80, 0xc7, 0xbd,
  0xd4, 0x0a, 0x14, 0x3d, 0x08, 0x29, 0x87, 0x3f, 0x62, 0xf2, 0x11, 0xbf,
  0x9d, 0x22, 0x26, 0x3e, 0xb9, 0x8a, 0x17, 0xbc, 0x4c, 0x73, 0x0f, 0x3e,
  0x83, 0x9e, 0xdb, 0xbe, 0x9b, 0x94, 0x9e, 0xbe, 0x9b, 0x00, 0x88, 0x3f,
  0xb0, 0xd8, 0x17, 0xbe, 0x21, 0xbc, 0xb8, 0xbd, 0xe1, 0xf6, 0x1d, 0xbf,
  0xaf, 0x47, 0x2c, 0xbc, 0xfa, 0x96, 0x3e, 0x3e, 0x60, 0xd5, 0x0a, 0x3e,
  0x34, 0x7f, 0x60, 0x3e, 0x1d, 0x96, 0x87, 0xbf, 0x74, 0x01, 0x46, 0x3f,
  0x4c, 0x97, 0x61, 0x3f, 0xbd, 0x95, 0xb6, 0xbe, 0xc5, 0x91, 0xa9, 0xbc,
  0x9f, 0xcc, 0x03, 0x3f, 0xac, 0x4f, 0x9d, 0xbe, 0xcd, 0x21, 0xaa, 0xbd,
  0x95, 0xb6, 0x31, 0xbf, 0x06, 0x00, 0x84, 0x3f, 0x38, 0xc1, 0xc1, 0xbf,
  0xcb, 0x10, 0xee, 0x3d, 0x94, 0x5a, 0xb3, 0x3e, 0x9a, 0xeb, 0x18, 0xbe,
  0xd7, 0x63, 0x8f, 0xbf, 0x4c, 0x08, 0x34, 0x3d, 0x47, 0x84, 0xfe, 0xbf,
  0xd0, 0xc9, 0x41, 0x3f, 0x49, 0x18, 0x69, 0xbf, 0xf1, 0xca, 0x46, 0x3e,
  0x7c, 0x2a, 0xa8, 0xbf, 0xde, 0x74, 0xe9, 0x3d, 0xcf, 0xe6, 0x8b, 0xbc,
  0x6a, 0xb2, 0xb0, 0xbe, 0xf9, 0xf4, 0x51, 0xbf, 0x43, 0xd9, 0x07, 0x3f,
  0x5e, 0xb8, 0x2c, 0x3f, 0x53, 0x2e, 0x59, 0x3f, 0x20, 0xda, 0x9f, 0x3d,
  0xb5, 0x71, 0x17, 0x3f, 0xe5, 0x04, 0xcb, 0x3d, 0x4a, 0x53, 0x11, 0xbf,
  0xce, 0x8e, 0xf7, 0x3e, 0x52, 0xa2, 0x92, 0x3e, 0x4f, 0x60, 0x1f, 0x3e,
  0x47, 0x7c, 0x03, 0x3e, 0xd7, 0x6c, 0xff, 0x3e, 0x4a, 0xd9, 0x82, 0x3e,
  0x9b, 0xf0, 0x48, 0x3f, 0x0c, 0x35, 0x46, 0x3f, 0x6c, 0x15, 0x2b, 0x3e,
  0x60, 0x5d, 0xc4, 0x3d, 0xb6, 0x6b, 0x95, 0x3d, 0x92, 0x31, 0xd0, 0x3f,
  0x9d, 0x0d, 0xca, 0x3e, 0xca, 0x18, 0x13, 0xbf, 0x85, 0x66, 0x98, 0x3f,
  0x58, 0x60, 0x1b, 0xbf, 0xcf, 0xe9, 0xd8, 0x3d, 0xa9, 0xa6, 0xc1, 0x3f,
  0x1c, 0xbe, 0x9c, 0x3e, 0xa4, 0x54, 0xb6, 0x3e, 0xc2, 0x47, 0x88, 0x3f,
  0x1d, 0x7b, 0x10, 0x3d, 0x67, 0xdc, 0xa5, 0xbb, 0xf9, 0xf4, 0x56, 0x3f,
  0x4b, 0x38, 0xb1, 0x3e, 0xa6, 0xe1, 0x30, 0xbe, 0x1f, 0xdb, 0x89, 0xbe,
  0x2c, 0xad, 0x29, 0x3f, 0x63, 0x91, 0xff, 0x3f, 0x45, 0x91, 0x22, 0xbe,
  0xbb, 0xf1, 0x87, 0x3f, 0x0f, 0xb5, 0x81, 0xbf, 0xe7, 0x10, 0x27, 0x3e,
  0xb2, 0x03, 0x64, 0x3f, 0xa1, 0x4a, 0x76, 0x3e, 0x28, 0x7f, 0x66, 0x3e,
  0x05, 0xe1, 0x6f, 0xbe, 0xeb, 0x2c, 0x65, 0x3f, 0x9f, 0x14, 0xa0, 0x3f,
  0x03, 0xab, 0x2d, 0xbd, 0x0a, 0x14, 0xf0, 0xbd, 0xf8, 0xe2, 0x54, 0x3e,
  0x72, 0xc4, 0x15, 0x3f, 0x51, 0xb6, 0x83, 0x3f, 0x8e, 0x94, 0xaf, 0x3e,
  0xa8, 0x22, 0x56, 0xbe, 0xe6, 0xfb, 0x2b, 0x3e, 0x51, 0xfe, 0x96, 0xbf,
  0x1c, 0xd9, 0x20, 0x3f, 0x0c, 0x6d, 0x88, 0x3e, 0x96, 0x1e, 0x0a, 0x40,
  0x11, 0xd5, 0xa6, 0x3f, 0x4a, 0x79, 0x64, 0x3e, 0x19, 0x2c, 0x84, 0xbe,
  0x46, 0x79, 0x2c, 0x3f, 0xf2, 0xf7, 0xff, 0xff, 0x04, 0x00, 0x00, 0x00,
  0x00, 0x08, 0x00, 0x00, 0xa9, 0x4e, 0x04, 0xbe, 0x97, 0x6d, 0x73, 0xbe,
  0x51, 0x65, 0x23, 0xbe, 0x04, 0xba, 0x9b, 0xbd, 0xf3, 0xeb, 0x27, 0xbe,
  0x11, 0xc9, 0x91, 0xbe, 0xcf, 0xab, 0x77, 0x3e, 0x90, 0xb6, 0x42, 0x3e,
  0x4a, 0xd2, 0xc1, 0xbd, 0x0b, 0x15, 0xc4, 0xbd, 0x36, 0x35, 0x18, 0xbe,
  0x19, 0x99, 0x2c, 0xbe, 0x4b, 0xfe, 0x15, 0x3e, 0x96, 0xc3, 0xae, 0xbd,
  0xf6, 0xe6, 0x43, 0xbd, 0x42, 0xa3, 0xdf, 0x3d, 0x41, 0xbd, 0x8e, 0xbd,
  0xf6, 0x89, 0x99, 0xbe, 0x78, 0x55, 0x8e, 0xbd, 0x93, 0x07, 0x52, 0xbd,
  0x44, 0x17, 0xf2, 0x3c, 0x27, 0x4f, 0x7b, 0xbe, 0x81, 0x84, 0xb0, 0xbe,
  0x2f, 0xbf, 0xcf, 0xbe, 0x27, 0x13, 0xf0, 0x3d, 0xf2, 0x90, 0x36, 0xbd,
  0xdb, 0x25, 0xf2, 0x3d, 0xab, 0x07, 0xf1, 0xbc, 0xd7, 0x92, 0x23, 0x3e,
  0x46, 0xb6, 0x10, 0xbd, 0xd9, 0xc6, 0x84, 0xbe, 0xb0, 0x23, 0x94, 0xbe,
  0x9a, 0xce, 0xc2, 0x3e, 0x01, 0x15, 0x18, 0x3f, 0xeb, 0x08, 0x32, 0xbf,
  0x04, 0xae, 0x7f, 0x3e, 0xe2, 0x90, 0x67, 0xbe, 0x7c, 0x00, 0x36, 0xbe,
  0xb8, 0x1d, 0xb9, 0x3e, 0x38, 0x11, 0x00, 0xbf, 0xde, 0x17, 0x98, 0x3f,
  0xee, 0x44, 0xf9, 0x3e, 0xf2, 0xdd, 0x84, 0x3e, 0xdc, 0x77, 0x5f, 0x3f,
  0x56, 0x57, 0xc7, 0x3e, 0x4b, 0xfe, 0x0f, 0x3f, 0xd4, 0x11, 0x14, 0x3e,
  0x83, 0x91, 0x3c, 0x3e, 0x40, 0x8e, 0xef, 0x3e, 0xba, 0x0d, 0x96, 0xbe,
  0x6e, 0xf2, 0x39, 0xbe, 0xd7, 0xd3, 0x47, 0x3f, 0xfe, 0x6a, 0xac, 0xbd,
  0xc8, 0x7e, 0x49, 0x3f, 0x11, 0x6c, 0xd3, 0x3c, 0x5a, 0x07, 0x8f, 0xbe,
  0xed, 0x4f, 0x2b, 0xbe, 0x32, 0x08, 0xe0, 0xbe, 0x9f, 0xc1, 0x90, 0x3e,
  0xba, 0x6a, 0x3e, 0xbf, 0x0f, 0x59, 0xa9, 0xbe, 0x28, 0x8e, 0x63, 0xbe,
  0x03, 0xae, 0x97, 0x3f, 0x30, 0x74, 0x85, 0x3d, 0x01, 0xcf, 0x0a, 0x3f,
  0x9b, 0x94, 0x17, 0x3e, 0x31, 0x93, 0x57, 0x3f, 0x34, 0x20, 0x35, 0x3f,
  0x77, 0xaa, 0x8f, 0xbd, 0x05, 0x91, 0xb8, 0x3e, 0x4d, 0xb2, 0xcf, 0xbe,
  0x13, 0x68, 0x35, 0x3f, 0xda, 0x01, 0x82, 0xbf, 0x6f, 0x8f, 0xc3, 0xbe,
  0xa2, 0x7e, 0x3d, 0xbe, 0xa0, 0x39, 0x98, 0x3e, 0xe5, 0x7c, 0xd5, 0x3a,
  0x8f, 0xe4, 0x18, 0xbf, 0x75, 0x90, 0xdd, 0xbc, 0x71, 0xa1, 0xac, 0xbe,
  0x0d, 0x48, 0xd5, 0xbe, 0xb0, 0x41, 0x17, 0x3f, 0xdd, 0xda, 0x47, 0xbe,
  0x4e, 0xa2, 0xd4, 0x3c, 0x6e, 0xc0, 0x46, 0x3d, 0x49, 0x56, 0x95, 0xbe,
  0xbc, 0x0d, 0xf9, 0xbe, 0x1c, 0x09, 0xbc, 0xbc, 0x63, 0x0a, 0xab, 0x3e,
  0xaa, 0x07, 0xc2, 0x3d, 0xb0, 0x36, 0x2a, 0x3f, 0x52, 0x5b, 0x23, 0x3f,
  0x90, 0xfc, 0x00, 0xbd, 0x8a, 0x0c, 0x12, 0x3e, 0x5c, 0x19, 0x04, 0xbf,
  0x93, 0x87, 0x1e, 0x3e, 0x58, 0xed, 0xc3, 0x3e, 0x5e, 0x1e, 0xee, 0x3d,
  0x7d, 0xb3, 0x21, 0xbf, 0xe0, 0x6f, 0xb5, 0xbc, 0x63, 0x19, 0xca, 0x3c,
  0x3a, 0x92, 0xab, 0x3e, 0xe6, 0x32, 0xc2, 0xbe, 0x5d, 0x17, 0xc6, 0xbf,
  0x11, 0x5a, 0x80, 0x3d, 0xba, 0x0c, 0x36, 0x3e, 0xc3, 0x18, 0xb8, 0x3e,
  0xfa, 0x8d, 0xb2, 0xbc, 0x87, 0x32, 0x24, 0x3d, 0x7a, 0xac, 0xa1, 0xbc,
  0x65, 0xf5, 0x27, 0xbf, 0xea, 0xc4, 0x97, 0xbb, 0xb8, 0x18, 0x8e, 0x3e,
  0x87, 0x0f, 0xe9, 0xbe, 0x96, 0x8b, 0x36, 0x3e, 0x7e, 0xb9, 0x12, 0x3f,
  0x80, 0x48, 0xbb, 0xbd, 0xab, 0x6c, 0x8a, 0xbe, 0x39, 0x02, 0x8d, 0x3d,
  0xd2, 0x06, 0x2b, 0xbd, 0xec, 0xd4, 0xcc, 0xbe, 0x06, 0x8c, 0xe3, 0xbe,
  0xd2, 0xd9, 0xb8, 0xbd, 0x69, 0xac, 0x8e, 0x3e, 0x7a, 0x3f, 0xb7, 0xbd,
  0xd1, 0x25, 0x84, 0xbe, 0xa9, 0x91, 0x60, 0x3f, 0x58, 0x88, 0xa1, 0xbf,
  0xd7, 0xca, 0xf5, 0xbc, 0x73, 0x3b, 0x2c, 0x3f, 0x15, 0xbf, 0x73, 0xbf,
  0x91, 0x94, 0x78, 0xbe, 0x55, 0xc9, 0xda, 0x3d, 0x35, 0x96, 0xc3, 0xbe,
  0xc5, 0xcd, 0x0f, 0x3f, 0x7d, 0x56, 0x04, 0xbf, 0x0a, 0xa8, 0x51, 0x3f,
  0x78, 0x99, 0x9d, 0x3e, 0x80, 0x6f, 0x1a, 0x3e, 0x37, 0xd5, 0x84, 0x3e,
  0xf4, 0xdf, 0x68, 0xbd, 0xc2, 0x28, 0xe8, 0x3e, 0x9b, 0x66, 0x65, 0x3e,
  0x7a, 0xbb, 0xb5, 0xbd, 0x6e, 0x84, 0x51, 0x3e, 0x4e, 0x53, 0xad, 0xbe,
  0xb0, 0xeb, 0xb8, 0xbb, 0xba, 0xec, 0xb9, 0x3e, 0xa7, 0x1f, 0x84, 0x3d,
  0x19, 0x32, 0x3d, 0x3f, 0x85, 0x60, 0x15, 0xbe, 0x80, 0x39, 0x78, 0xbd,
  0xea, 0xe6, 0x9f, 0xbe, 0x56, 0xdd, 0x62, 0xbf, 0xb7, 0x17, 0xfd, 0xbd,
  0x8d, 0x9f, 0x1b, 0xbe, 0x2e, 0x9f, 0x6d, 0x3d, 0x15, 0x7d, 0x78, 0xbe,
  0x14, 0xc2, 0x06, 0x3f, 0x12, 0x8b, 0x9b, 0xbe, 0x0a, 0x7e, 0x94, 0xbe,
  0x0d, 0xef, 0xf1, 0x3c, 0x79, 0xf7, 0x5e, 0x3f, 0x66, 0x98, 0x18, 0x3f,
  0xc6, 0x42, 0xd0, 0xbd, 0x08, 0xc6, 0x6d, 0x3e, 0x02, 0xf8, 0x6b, 0xbe,
  0xf6, 0x3e, 0x81, 0x3f, 0xb6, 0x53, 0xde, 0xbf, 0x69, 0x6c, 0xc8, 0xbc,
  0xb3, 0x10, 0x4d, 0x3e, 0xa6, 0xca, 0x96, 0x3e, 0xb3, 0x1b, 0x00, 0x3d,
  0xba, 0xa7, 0x81, 0xbf, 0x49, 0x8d, 0x06, 0x3b, 0x18, 0x19, 0xc8, 0xbd,
  0x48, 0xfb, 0x01, 0xbf, 0x02, 0xc8, 0x22, 0x3f, 0x1b, 0x2e, 0x4f, 0xbd,
  0x34, 0x16, 0xe6, 0x3e, 0xc0, 0xe3, 0xd5, 0x3d, 0xf8, 0x20, 0x21, 0xbe,
  0x12, 0xf6, 0xbc, 0xbd, 0x57, 0x07, 0x80, 0xbe, 0xb6, 0xd3, 0x3e, 0x3e,
  0xbb, 0x1e, 0x98, 0x3d, 0x2f, 0xa4, 0x4d, 0x3f, 0xd5, 0x6d, 0x3a, 0x3f,
  0x3c, 0xce, 0xdf, 0x3e, 0x1f, 0xe4, 0x7d, 0x3c, 0xfd, 0x5f, 0x22, 0x3f,
  0xcb, 0xad, 0x63, 0x3f, 0x34, 0xa5, 0x19, 0x3f, 0xe5, 0x5d, 0x00, 0x3f,
  0xc6, 0x80, 0x1b, 0xbf, 0xdd, 0x5d, 0xcd, 0x3e, 0x9a, 0x24, 0x9e, 0xbe,
  0xec, 0xbf, 0x57, 0x3e, 0x44, 0xe6, 0xc7, 0x3e, 0x91, 0x30, 0x3b, 0xbf,
  0x1e, 0x9c, 0x92, 0x3f, 0xb1, 0xc5, 0xf9, 0x3e, 0xea, 0x36, 0x6a, 0x3e,
  0x27, 0xad, 0x3e, 0x3f, 0x85, 0xb9, 0xf2, 0x3e, 0xa3, 0x93, 0x40, 0x3f,
  0x9d, 0x87, 0x32, 0x3e, 0x72, 0x61, 0xb2, 0x3e, 0xc0, 0x08, 0x26, 0x3f,
  0x0f, 0xcf, 0x23, 0xbf, 0x7d, 0x19, 0xcb, 0xbd, 0x42, 0xb7, 0x16, 0x3f,
  0x86, 0xa9, 0xf5, 0xbd, 0x99, 0x92, 0x2f, 0x3f, 0x75, 0xd1, 0xd9, 0x3e,
  0x37, 0xb0, 0x0c, 0xbd, 0x6f, 0x15, 0x01, 0xbe, 0xd5, 0x39, 0x32, 0xbf,
  0x05, 0x30, 0x51, 0x3e, 0xed, 0x44, 0x4c, 0xbf, 0x8e, 0x33, 0x82, 0x3e,
  0x46, 0xb5, 0x7c, 0x3e, 0x54, 0xda, 0x57, 0x3f, 0x92, 0xc7, 0xb8, 0xbe,
  0x4b, 0x68, 0xde, 0x3e, 0x9f, 0xcb, 0x06, 0x3f, 0xd5, 0x7e, 0x20, 0x3f,
  0x9d, 0x4b, 0x25, 0x3f, 0x4b, 0xad, 0x4d, 0x3e, 0x1c, 0x68, 0x66, 0x3e,
  0x5b, 0xbe, 0x14, 0xbf, 0x61, 0x47, 0x79, 0x3e, 0x04, 0x8c, 0xc0, 0xbf,
  0x90, 0x58, 0x9d, 0xbf, 0xd3, 0x0d, 0xe8, 0xbe, 0xa8, 0x45, 0xce, 0x3e,
  0xe4, 0xaa, 0xe5, 0x3e, 0x31, 0xb1, 0x4d, 0xbe, 0x6e, 0xe8, 0x0b, 0xbe,
  0x32, 0xc8, 0xc9, 0x3d, 0x01, 0xa3, 0xb4, 0xbf, 0x0c, 0x71, 0x5c, 0x3f,
  0x78, 0xc1, 0x3b, 0x3e, 0x15, 0x82, 0xdd, 0x3c, 0x06, 0xa0, 0x31, 0xbe,
  0xa3, 0x0a, 0xd5, 0xbd, 0x86, 0xf4, 0x55, 0xbd, 0xbc, 0xb1, 0x0b, 0x3d,
  0x91, 0x7a, 0x6c, 0x3e, 0x08, 0x96, 0xfc, 0x3e, 0x25, 0x12, 0xe5, 0x3e,
  0x51, 0x36, 0x73, 0x3e, 0xeb, 0x54, 0xca, 0xbd, 0xa9, 0xaf, 0xad, 0xbe,
  0xf2, 0xea, 0xa4, 0x3e, 0x47, 0xc0, 0xb2, 0xbe, 0x46, 0x1f, 0xfc, 0xbd,
  0x59, 0x14, 0x09, 0x3e, 0x96, 0xeb, 0x8c, 0x3f, 0x34, 0x83, 0x09, 0x3e,
  0x22, 0x72, 0x37, 0xbd, 0x76, 0x2e, 0x14, 0x3f, 0x45, 0x1c, 0x87, 0x3d,
  0x64, 0x82, 0x68, 0x3f, 0x46, 0xf4, 0x16, 0xbf, 0x47, 0x82, 0x7b, 0xbd,
  0x71, 0x64, 0xad, 0xbe, 0x64, 0x3e, 0x09, 0x3f, 0x97, 0xe9, 0x69, 0x3e,
  0x60, 0x86, 0xc4, 0xbf, 0xa8, 0xc0, 0xc4, 0x3e, 0x2f, 0xee, 0xef, 0xbe,
  0x40, 0xd1, 0xde, 0x3b, 0xb1, 0x32, 0xbc, 0x3e, 0xfd, 0xf5, 0xaa, 0xbe,
  0x54, 0x53, 0x62, 0x3e, 0x03, 0xd9, 0x86, 0xbe, 0x9f, 0x4c, 0x9e, 0xbe,
  0x11, 0x62, 0xa2, 0xbe, 0xa9, 0xf8, 0x8a, 0xbe, 0x7a, 0xc3, 0x1d, 0xbe,
  0xdf, 0x7c, 0xdc, 0x3e, 0x94, 0x8e, 0xe5, 0x3e, 0xf7, 0xf5, 0x25, 0x3f,
  0xc3, 0x53, 0x56, 0xbe, 0x1d, 0x03, 0x2a, 0x3d, 0x4c, 0x3a, 0x2b, 0x3f,
  0xa8, 0xda, 0x8a, 0x3e, 0x3f, 0x6e, 0xb4, 0xbe, 0xc8, 0x6c, 0xae, 0x3e,
  0x4d, 0x34, 0x59, 0x3f, 0xd7, 0xf2, 0x0a, 0x3f, 0xa1, 0x83, 0x9f, 0xbe,
  0xd7, 0xa1, 0xa8, 0x3e, 0xc5, 0x24, 0x3c, 0x3f, 0xc6, 0x6b, 0x3c, 0x3f,
  0xd7, 0x86, 0x5a, 0xbf, 0xb6, 0x71, 0x40, 0xbe, 0x06, 0xf6, 0x0d, 0xbc,
  0x6c, 0xb4, 0x9c, 0x3e, 0x41, 0xf7, 0x9c, 0xbd, 0x3f, 0xba, 0x79, 0xbf,
  0x3f, 0xac, 0x00, 0x3f, 0x90, 0xaf, 0x1d, 0xbf, 0x18, 0xfb, 0x93, 0xbd,
  0x63, 0xdf, 0x5b, 0x3e, 0x0d, 0x0c, 0xf9, 0xbd, 0x74, 0xd7, 0xd8, 0x3c,
  0xfc, 0x13, 0x2a, 0xbc, 0xcf, 0xc4, 0x8c, 0xbd, 0xcf, 0x2d, 0x3f, 0xbf,
  0x10, 0x12, 0x8d, 0x3d, 0xc1, 0x25, 0x0d, 0x3e, 0x8f, 0x4e, 0x40, 0x3e,
  0x52, 0xa1, 0xb9, 0x3e, 0x90, 0x4e, 0x0f, 0x3f, 0x1b, 0x70, 0xe6, 0x3d,
  0x11, 0x1c, 0x59, 0xbe, 0xd1, 0x78, 0x46, 0xbd, 0x36, 0x3a, 0xce, 0x3e,
  0xe1, 0x6d, 0xb1, 0x3e, 0x5b, 0xf9, 0xae, 0xbd, 0xbe, 0x63, 0x25, 0x3f,
  0x80, 0x00, 0x86, 0x3e, 0x8b, 0x6c, 0x22, 0xbd, 0x83, 0x5e, 0xb4, 0x3e,
  0xcf, 0x01, 0x10, 0xbf, 0x1e, 0x55, 0x54, 0x3f, 0x64, 0xbb, 0x94, 0xbf,
  0xfd, 0xc3, 0xc5, 0xbe, 0xa3, 0xf2, 0x6b, 0x3e, 0x5e, 0xbe, 0x1f, 0x3e,
  0xfc, 0xcc, 0x85, 0x3d, 0x74, 0x93, 0x0d, 0xbf, 0x01, 0x03, 0x71, 0xbe,
  0xad, 0x5f, 0x96, 0xbe, 0xca, 0x79, 0xa5, 0xbe, 0x6d, 0x91, 0xf0, 0x3e,
  0x87, 0xb6, 0xc7, 0x3c, 0x9c, 0x31, 0x0c, 0x3d, 0x65, 0xfe, 0xcb, 0x3d,
  0x29, 0x58, 0x16, 0xbe, 0x7f, 0xd0, 0x1c, 0xbf, 0x25, 0x77, 0x7d, 0x3e,
  0x77, 0x2d, 0x8f, 0x3e, 0x62, 0x2f, 0x97, 0x3e, 0xde, 0x82, 0xd0, 0x3e,
  0x7e, 0x89, 0xcf, 0x3e, 0x26, 0x57, 0x7d, 0xbe, 0x68, 0xe4, 0x4a, 0xbd,
  0x21, 0x83, 0x8f, 0xbe, 0x0c, 0x48, 0x61, 0x3e, 0x7f, 0x52, 0xe6, 0x3e,
  0x81, 0xd9, 0x1f, 0x3f, 0xaf, 0x0b, 0x59, 0x3f, 0x65, 0x56, 0x9c, 0xbc,
  0x9e, 0x16, 0x1a, 0x3e, 0x53, 0x5b, 0x39, 0x3e, 0x53, 0x31, 0x9a, 0xbe,
  0x65, 0x76, 0x1b, 0x3e, 0x6f, 0xc4, 0x92, 0xbf, 0xfb, 0x51, 0x81, 0xbf,
  0x9a, 0x8c, 0xde, 0xbe, 0x10, 0x1e, 0xb1, 0x3e, 0x57, 0xfb, 0x1b, 0x3f,
  0xd1, 0x05, 0x49, 0xbd, 0xe4, 0xc5, 0x07, 0x3e, 0x09, 0x8b, 0x87, 0x3a,
  0x74, 0x3e, 0xd5, 0xbf, 0xbe, 0x82, 0x12, 0x3f, 0x0e, 0x06, 0xc6, 0x3c,
  0xea, 0x51, 0xbe, 0x3d, 0x39, 0x46, 0xad, 0x3b, 0xd4, 0x14, 0x01, 0xbf,
  0x3e, 0x0d, 0x86, 0xbe, 0xdd, 0x5c, 0x7d, 0x3e, 0xc1, 0x89, 0x0a, 0x3f,
  0xb5, 0x84, 0xd6, 0x3e, 0x07, 0xb6, 0x91, 0x3e, 0x66, 0x72, 0xe5, 0x3e,
  0x25, 0x71, 0x0d, 0xbe, 0x37, 0x8d, 0xde, 0xbd, 0x42, 0x70, 0xd4, 0x3e,
  0x17, 0x1c, 0x41, 0x3e, 0x5c, 0x4f, 0x54, 0x3f, 0x2e, 0x6b, 0x2e, 0x3f,
  0xe0, 0x58, 0x60, 0xbf, 0x5b, 0xaa, 0xde, 0x3e, 0x96, 0x60, 0xa2, 0xbd,
  0xfa, 0xdd, 0xc7, 0x3e, 0xec, 0x2b, 0x62, 0x3f, 0x81, 0x03, 0x18, 0xbf,
  0x78, 0xd3, 0xa3, 0x3f, 0x76, 0x50, 0xad, 0x3e, 0xa6, 0x02, 0x30, 0x3f,
  0x07, 0x04, 0x19, 0x3f, 0x9a, 0x1c, 0x84, 0x3e, 0x42, 0x37, 0xe9, 0x3e,
  0xe8, 0x97, 0xdc, 0x3d, 0x46, 0xb1, 0x1c, 0x3f, 0x8c, 0x33, 0x18, 0x3f,
  0x66, 0x74, 0xe0, 0xbe, 0x64, 0x14, 0x0b, 0x3e, 0x4d, 0x0e, 0xdc, 0x3e,
  0xeb, 0xc8, 0x37, 0x3e, 0x2e, 0x53, 0x34, 0x3f, 0xa4, 0x0a, 0xa0, 0x3e,
  0x7d, 0x92, 0xb7, 0xbe, 0x85, 0x9b, 0x4d, 0xbf, 0x63, 0x64, 0x57, 0xbf,
  0x3f, 0x86, 0xd3, 0x3e, 0x33, 0x39, 0x21, 0xbf, 0x79, 0x29, 0x19, 0xbc,
  0x34, 0x4a, 0x9d, 0x3b, 0xa4, 0x43, 0x9c, 0x3f, 0xe0, 0x4c, 0xcc, 0x3d,
  0xc1, 0x53, 0x7b, 0xbb, 0xff, 0x21, 0x52, 0x3f, 0x17, 0xd7, 0x8e, 0x3f,
  0x81, 0xf0, 0x3d, 0x3f, 0xad, 0x29, 0xec, 0xbe, 0x8a, 0xc3, 0xfc, 0xbd,
  0x66, 0x8c, 0xd8, 0x3e, 0x54, 0xb8, 0x05, 0x3f, 0xbb, 0x0d, 0x4a, 0xbf,
  0xb3, 0xd5, 0x5a, 0xbe, 0xaa, 0x9a, 0x83, 0xbe, 0x2c, 0xdf, 0x81, 0xbd,
  0x90, 0x1d, 0xda, 0xbe, 0x03, 0x6c, 0xf9, 0xbe, 0x3b, 0x6a, 0x28, 0x3e,
  0x33, 0x76, 0xa4, 0xbd, 0x8b, 0x27, 0xc5, 0xbe, 0x6d, 0x06, 0x45, 0x3f,
  0xd4, 0x49, 0x78, 0x3d, 0x39, 0xaf, 0x28, 0x3f, 0x1b, 0xad, 0x2e, 0x3d,
  0xe3, 0xf3, 0xbe, 0x3e, 0xea, 0x1d, 0xc6, 0xbe, 0x6f, 0x22, 0x13, 0xbe,
  0x2a, 0x63, 0x3e, 0x3e, 0x92, 0x64, 0xaf, 0xbd, 0x6c, 0x37, 0x87, 0x3e,
  0xbd, 0x30, 0x80, 0x3f, 0xea, 0xec, 0x99, 0x3e, 0xad, 0x71, 0xaf, 0xbd,
  0xa6, 0x1d, 0x77, 0x3f, 0xb8, 0xaa, 0xcc, 0xbd, 0x02, 0x6e, 0xc2, 0xbf,
  0xc4, 0xb6, 0xbe, 0xbd, 0x34, 0xe6, 0x9a, 0x3f, 0x58, 0x02, 0x5f, 0xbf,
  0x4b, 0xea, 0xd6, 0x3e, 0x40, 0xa4, 0xcd, 0xbf, 0xdf, 0x86, 0x33, 0xbe,
  0x76, 0xc2, 0xf7, 0x3e, 0xed, 0xaf, 0xcd, 0xbf, 0xc7, 0x08, 0x38, 0xbf,
  0x5d, 0x56, 0x82, 0x3f, 0x00, 0xcb, 0x99, 0xbe, 0x86, 0xb5, 0x68, 0xbf,
  0x55, 0xf4, 0xcb, 0xbf, 0x07, 0xcf, 0x52, 0xbe, 0x5f, 0x0b, 0x57, 0xbe,
  0x6d, 0xe6, 0x5a, 0xbf, 0x54, 0x56, 0x6f, 0x3f, 0xc1, 0x26, 0xd8, 0xbc,
  0x6c, 0xf8, 0xa3, 0xbe, 0x59, 0xf4, 0x59, 0xbe, 0xb5, 0x8c, 0x00, 0x3f,
  0xc3, 0x28, 0x4d, 0x3f, 0x76, 0x0e, 0xe7, 0x3e, 0xda, 0x9b, 0x9a, 0x3e,
  0x11, 0xac, 0xce, 0x3d, 0xe1, 0x41, 0x31, 0xbe, 0xc1, 0xeb, 0x93, 0x3f,
  0x03, 0x57, 0xbb, 0xbd, 0x15, 0x50, 0xb7, 0xbc, 0x82, 0x28, 0xba, 0x3d,
  0x8b, 0x5f, 0x37, 0x3f, 0x0d, 0x77, 0x26, 0xbe, 0x85, 0x9c, 0x4d, 0x3f,
  0x0c, 0x64, 0x8e, 0x3f, 0x79, 0x8d, 0x26, 0xbd, 0x56, 0x91, 0x72, 0x3e,
  0xc5, 0x8f, 0x5e, 0xbe, 0x6b, 0xa7, 0x09, 0x3f, 0xca, 0x1a, 0x30, 0x3f,
  0x63, 0xec, 0x38, 0xbf, 0x97, 0x3c, 0x84, 0xbe, 0xa7, 0xdf, 0xe3, 0xbd,
  0x7b, 0x29, 0x7a, 0x3d, 0x30, 0x79, 0x36, 0xbf, 0x19, 0xf8, 0x96, 0xbf,
  0xee, 0xcb, 0x88, 0x3e, 0xdc, 0x1b, 0x3f, 0xbf, 0x6e, 0x9e, 0x2d, 0xbe,
  0x58, 0x0b, 0x65, 0x3f, 0xe7, 0x71, 0x99, 0xbe, 0xd0, 0x1d, 0x91, 0x3e,
  0xff, 0x4e, 0x5e, 0x3b, 0x33, 0x75, 0xa5, 0x3e, 0x5d, 0x95, 0xd8, 0xbc,
  0x09, 0x9e, 0xa1, 0xbd, 0x20, 0x7f, 0xff, 0x3e, 0x15, 0x29, 0x55, 0xbd,
  0xd5, 0x61, 0x7a, 0x3d, 0x70, 0x42, 0x8a, 0x3f, 0x52, 0xf4, 0x1d, 0xbd,
  0x91, 0x68, 0x3d, 0x3e, 0x92, 0x31, 0x29, 0x3f, 0x0a, 0xd7, 0x87, 0xbe,
  0x00, 0x00, 0x06, 0x00, 0x08, 0x00, 0x04, 0x00, 0x06, 0x00, 0x00, 0x00,
  0x04, 0x00, 0x00, 0x00, 0x40, 0x00, 0x00, 0x00, 0x18, 0x71, 0xb4, 0x3c,
  0x9d, 0xa9, 0x0d, 0xbf, 0xeb, 0x0d, 0x96, 0x3d, 0x39, 0x5c, 0x88, 0xbe,
  0x9d, 0x65, 0x40, 0xbd, 0xb0, 0x3a, 0x63, 0x3f, 0x79, 0xa6, 0x23, 0xbf,
  0xad, 0xec, 0x79, 0x3f, 0x93, 0xb6, 0x1e, 0x3f, 0xeb, 0x32, 0x74, 0x3e,
  0x4d, 0x8e, 0xea, 0x3d, 0x21, 0x14, 0xe7, 0x3e, 0x8c, 0x12, 0x35, 0xbf,
  0x78, 0x57, 0x27, 0x3f, 0x2b, 0x36, 0xc6, 0x3f, 0x7a, 0x1a, 0x88, 0x3f,
  0x1c, 0xf9, 0xff, 0xff, 0x20, 0xf9, 0xff, 0xff, 0x0f, 0x00, 0x00, 0x00,
  0x4d, 0x4c, 0x49, 0x52, 0x20, 0x43, 0x6f, 0x6e, 0x76, 0x65, 0x72, 0x74,
  0x65, 0x64, 0x2e, 0x00, 0x01, 0x00, 0x00, 0x00, 0x14, 0x00, 0x00, 0x00,
  0x00, 0x00, 0x0e, 0x00, 0x18, 0x00, 0x14, 0x00, 0x10, 0x00, 0x0c, 0x00,
  0x08, 0x00, 0x04, 0x00, 0x0e, 0x00, 0x00, 0x00, 0x14, 0x00, 0x00, 0x00,
  0x1c, 0x00, 0x00, 0x00, 0x40, 0x01, 0x00, 0x00, 0x44, 0x01, 0x00, 0x00,
  0x48, 0x01, 0x00, 0x00, 0x04, 0x00, 0x00, 0x00, 0x6d, 0x61, 0x69, 0x6e,
  0x00, 0x00, 0x00, 0x00, 0x05, 0x00, 0x00, 0x00, 0xe8, 0x00, 0x00, 0x00,
  0xa0, 0x00, 0x00, 0x00, 0x68, 0x00, 0x00, 0x00, 0x34, 0x00, 0x00, 0x00,
  0x10, 0x00, 0x00, 0x00, 0x00, 0x00, 0x0a, 0x00, 0x10, 0x00, 0x0c, 0x00,
  0x08, 0x00, 0x04, 0x00, 0x0a, 0x00, 0x00, 0x00, 0x0c, 0x00, 0x00, 0x00,
  0x10, 0x00, 0x00, 0x00, 0x01, 0x00, 0x00, 0x00, 0x01, 0x00, 0x00, 0x00,
  0x0d, 0x00, 0x00, 0x00, 0x01, 0x00, 0x00, 0x00, 0x0c, 0x00, 0x00, 0x00,
  0x66, 0xff, 0xff, 0xff, 0x10, 0x00, 0x00, 0x00, 0x00, 0x00, 0x00, 0x08,
  0x0c, 0x00, 0x00, 0x00, 0x10, 0x00, 0x00, 0x00, 0xcc, 0xf9, 0xff, 0xff,
  0x01, 0x00, 0x00, 0x00, 0x0c, 0x00, 0x00, 0x00, 0x03, 0x00, 0x00, 0x00,
  0x0b, 0x00, 0x00, 0x00, 0x01, 0x00, 0x00, 0x00, 0x04, 0x00, 0x00, 0x00,
  0x96, 0xff, 0xff, 0xff, 0x10, 0x00, 0x00, 0x00, 0x00, 0x00, 0x00, 0x08,
  0x10, 0x00, 0x00, 0x00, 0x14, 0x00, 0x00, 0x00, 0x86, 0xff, 0xff, 0xff,
  0x00, 0x00, 0x00, 0x01, 0x01, 0x00, 0x00, 0x00, 0x0b, 0x00, 0x00, 0x00,
  0x03, 0x00, 0x00, 0x00, 0x0a, 0x00, 0x00, 0x00, 0x02, 0x00, 0x00, 0x00,
  0x05, 0x00, 0x00, 0x00, 0xca, 0xff, 0xff, 0xff, 0x10, 0x00, 0x00, 0x00,
  0x00, 0x00, 0x00, 0x08, 0x10, 0x00, 0x00, 0x00, 0x14, 0x00, 0x00, 0x00,
  0xba, 0xff, 0xff, 0xff, 0x00, 0x00, 0x00, 0x01, 0x01, 0x00, 0x00, 0x00,
  0x0a, 0x00, 0x00, 0x00, 0x03, 0x00, 0x00, 0x00, 0x09, 0x00, 0x00, 0x00,
  0x03, 0x00, 0x00, 0x00, 0x06, 0x00, 0x00, 0x00, 0x00, 0x00, 0x0e, 0x00,
  0x16, 0x00, 0x00, 0x00, 0x10, 0x00, 0x0c, 0x00, 0x0b, 0x00, 0x04, 0x00,
  0x0e, 0x00, 0x00, 0x00, 0x18, 0x00, 0x00, 0x00, 0x00, 0x00, 0x00, 0x08,
  0x18, 0x00, 0x00, 0x00, 0x1c, 0x00, 0x00, 0x00, 0x00, 0x00, 0x06, 0x00,
  0x08, 0x00, 0x07, 0x00, 0x06, 0x00, 0x00, 0x00, 0x00, 0x00, 0x00, 0x01,
  0x01, 0x00, 0x00, 0x00, 0x09, 0x00, 0x00, 0x00, 0x03, 0x00, 0x00, 0x00,
  0x00, 0x00, 0x00, 0x00, 0x08, 0x00, 0x00, 0x00, 0x07, 0x00, 0x00, 0x00,
  0x01, 0x00, 0x00, 0x00, 0x0d, 0x00, 0x00, 0x00, 0x01, 0x00, 0x00, 0x00,
  0x00, 0x00, 0x00, 0x00, 0x0e, 0x00, 0x00, 0x00, 0x28, 0x05, 0x00, 0x00,
  0xd0, 0x04, 0x00, 0x00, 0x78, 0x04, 0x00, 0x00, 0x38, 0x04, 0x00, 0x00,
  0xfc, 0x03, 0x00, 0x00, 0xc0, 0x03, 0x00, 0x00, 0x84, 0x03, 0x00, 0x00,
  0x24, 0x03, 0x00, 0x00, 0xd0, 0x02, 0x00, 0x00, 0x2c, 0x02, 0x00, 0x00,
  0x88, 0x01, 0x00, 0x00, 0xe4, 0x00, 0x00, 0x00, 0x60, 0x00, 0x00, 0x00,
  0x04, 0x00, 0x00, 0x00, 0x26, 0xfb, 0xff, 0xff, 0x00, 0x00, 0x00, 0x01,
  0x14, 0x00, 0x00, 0x00, 0x1c, 0x00, 0x00, 0x00, 0x1c, 0x00, 0x00, 0x00,
  0x0e, 0x00, 0x00, 0x00, 0x34, 0x00, 0x00, 0x00, 0x02, 0x00, 0x00, 0x00,
  0xff, 0xff, 0xff, 0xff, 0x01, 0x00, 0x00, 0x00, 0x10, 0xfb, 0xff, 0xff,
  0x19, 0x00, 0x00, 0x00, 0x53, 0x74, 0x61, 0x74, 0x65, 0x66, 0x75, 0x6c,
  0x50, 0x61, 0x72, 0x74, 0x69, 0x74, 0x69, 0x6f, 0x6e, 0x65, 0x64, 0x43,
  0x61, 0x6c, 0x6c, 0x3a, 0x30, 0x00, 0x00, 0x00, 0x02, 0x00, 0x00, 0x00,
  0x01, 0x00, 0x00, 0x00, 0x01, 0x00, 0x00, 0x00, 0x7e, 0xfb, 0xff, 0xff,
  0x00, 0x00, 0x00, 0x01, 0x14, 0x00, 0x00, 0x00, 0x1c, 0x00, 0x00, 0x00,
  0x1c, 0x00, 0x00, 0x00, 0x0d, 0x00, 0x00, 0x00, 0x5c, 0x00, 0x00, 0x00,
  0x02, 0x00, 0x00, 0x00, 0xff, 0xff, 0xff, 0xff, 0x01, 0x00, 0x00, 0x00,
  0x68, 0xfb, 0xff, 0xff, 0x42, 0x00, 0x00, 0x00, 0x73, 0x65, 0x71, 0x75,
  0x65, 0x6e, 0x74, 0x69, 0x61, 0x6c, 0x5f, 0x31, 0x2f, 0x64, 0x65, 0x6e,
  0x73, 0x65, 0x5f, 0x44, 0x65, 0x6e, 0x73, 0x65, 0x34, 0x2f, 0x4d, 0x61,
  0x74, 0x4d, 0x75, 0x6c, 0x3b, 0x73, 0x65, 0x71, 0x75, 0x65, 0x6e, 0x74,
  0x69, 0x61, 0x6c, 0x5f, 0x31, 0x2f, 0x64, 0x65, 0x6e, 0x73, 0x65, 0x5f,
  0x44, 0x65, 0x6e, 0x73, 0x65, 0x34, 0x2f, 0x42, 0x69, 0x61, 0x73, 0x41,
  0x64, 0x64, 0x00, 0x00, 0x02, 0x00, 0x00, 0x00, 0x01, 0x00, 0x00, 0x00,
  0x01, 0x00, 0x00, 0x00, 0xfe, 0xfb, 0xff, 0xff, 0x00, 0x00, 0x00, 0x01,
  0x14, 0x00, 0x00, 0x00, 0x1c, 0x00, 0x00, 0x00, 0x1c, 0x00, 0x00, 0x00,
  0x0c, 0x00, 0x00, 0x00, 0x7c, 0x00, 0x00, 0x00, 0x02, 0x00, 0x00, 0x00,
  0xff, 0xff, 0xff, 0xff, 0x10, 0x00, 0x00, 0x00, 0xe8, 0xfb, 0xff, 0xff,
  0x61, 0x00, 0x00, 0x00, 0x73, 0x65, 0x71, 0x75, 0x65, 0x6e, 0x74, 0x69,
  0x61, 0x6c, 0x5f, 0x31, 0x2f, 0x64, 0x65, 0x6e, 0x73, 0x65, 0x5f, 0x44,
  0x65, 0x6e, 0x73, 0x65, 0x33, 0x2f, 0x4d, 0x61, 0x74, 0x4d, 0x75, 0x6c,
  0x3b, 0x73, 0x65, 0x71, 0x75, 0x65, 0x6e, 0x74, 0x69, 0x61, 0x6c, 0x5f,
  0x31, 0x2f, 0x64, 0x65, 0x6e, 0x73, 0x65, 0x5f, 0x44, 0x65, 0x6e, 0x73,
  0x65, 0x33, 0x2f, 0x52, 0x65, 0x6c, 0x75, 0x3b, 0x73, 0x65, 0x71, 0x75,
  0x65, 0x6e, 0x74, 0x69, 0x61, 0x6c, 0x5f, 0x31, 0x2f, 0x64, 0x65, 0x6e,
  0x73, 0x65, 0x5f, 0x44, 0x65, 0x6e, 0x73, 0x65, 0x33, 0x2f, 0x42, 0x69,
  0x61, 0x73, 0x41, 0x64, 0x64, 0x00, 0x00, 0x00, 0x02, 0x00, 0x00, 0x00,
  0x01, 0x00, 0x00, 0x00, 0x10, 0x00, 0x00, 0x00, 0x9e, 0xfc, 0xff, 0xff,
  0x00, 0x00, 0x00, 0x01, 0x14, 0x00, 0x00, 0x00, 0x1c, 0x00, 0x00, 0x00,
  0x1c, 0x00, 0x00, 0x00, 0x0b, 0x00, 0x00, 0x00, 0x7c, 0x00, 0x00, 0x00,
  0x02, 0x00, 0x00, 0x00, 0xff, 0xff, 0xff, 0xff, 0x20, 0x00, 0x00, 0x00,
  0x88, 0xfc, 0xff, 0xff, 0x61, 0x00, 0x00, 0x00, 0x73, 0x65, 0x71, 0x75,
  0x65, 0x6e, 0x74, 0x69, 0x61, 0x6c, 0x5f, 0x31, 0x2f, 0x64, 0x65, 0x6e,
  0x73, 0x65, 0x5f, 0x44, 0x65, 0x6e, 0x73, 0x65, 0x32, 0x2f, 0x4d, 0x61,
  0x74, 0x4d, 0x75, 0x6c, 0x3b, 0x73, 0x65, 0x71, 0x75, 0x65, 0x6e, 0x74,
  0x69, 0x61, 0x6c, 0x5f, 0x31, 0x2f, 0x64, 0x65, 0x6e, 0x73, 0x65, 0x5f,
  0x44, 0x65, 0x6e, 0x73, 0x65, 0x32, 0x2f, 0x52, 0x65, 0x6c, 0x75, 0x3b,
  0x73, 0x65, 0x71, 0x75, 0x65, 0x6e, 0x74, 0x69, 0x61, 0x6c, 0x5f, 0x31,
  0x2f, 0x64, 0x65, 0x6e, 0x73, 0x65, 0x5f, 0x44, 0x65, 0x6e, 0x73, 0x65,
  0x32, 0x2f, 0x42, 0x69, 0x61, 0x73, 0x41, 0x64, 0x64, 0x00, 0x00, 0x00,
  0x02, 0x00, 0x00, 0x00, 0x01, 0x00, 0x00, 0x00, 0x20, 0x00, 0x00, 0x00,
  0x3e, 0xfd, 0xff, 0xff, 0x00, 0x00, 0x00, 0x01, 0x14, 0x00, 0x00, 0x00,
  0x1c, 0x00, 0x00, 0x00, 0x1c, 0x00, 0x00, 0x00, 0x0a, 0x00, 0x00, 0x00,
  0x7c, 0x00, 0x00, 0x00, 0x02, 0x00, 0x00, 0x00, 0xff, 0xff, 0xff, 0xff,
  0x40, 0x00, 0x00, 0x00, 0x28, 0xfd, 0xff, 0xff, 0x61, 0x00, 0x00, 0x00,
  0x73, 0x65, 0x71, 0x75, 0x65, 0x6e, 0x74, 0x69, 0x61, 0x6c, 0x5f, 0x31,
  0x2f, 0x64, 0x65, 0x6e, 0x73, 0x65, 0x5f, 0x44, 0x65, 0x6e, 0x73, 0x65,
  0x31, 0x2f, 0x4d, 0x61, 0x74, 0x4d, 0x75, 0x6c, 0x3b, 0x73, 0x65, 0x71,
  0x75, 0x65, 0x6e, 0x74, 0x69, 0x61, 0x6c, 0x5f, 0x31, 0x2f, 0x64, 0x65,
  0x6e, 0x73, 0x65, 0x5f, 0x44, 0x65, 0x6e, 0x73, 0x65, 0x31, 0x2f, 0x52,
  0x65, 0x6c, 0x75, 0x3b, 0x73, 0x65, 0x71, 0x75, 0x65, 0x6e, 0x74, 0x69,
  0x61, 0x6c, 0x5f, 0x31, 0x2f, 0x64, 0x65, 0x6e, 0x73, 0x65, 0x5f, 0x44,
  0x65, 0x6e, 0x73, 0x65, 0x31, 0x2f, 0x42, 0x69, 0x61, 0x73, 0x41, 0x64,
  0x64, 0x00, 0x00, 0x00, 0x02, 0x00, 0x00, 0x00, 0x01, 0x00, 0x00, 0x00,
  0x40, 0x00, 0x00, 0x00, 0x32, 0xfe, 0xff, 0xff, 0x00, 0x00, 0x00, 0x01,
  0x10, 0x00, 0x00, 0x00, 0x10, 0x00, 0x00, 0x00, 0x09, 0x00, 0x00, 0x00,
  0x30, 0x00, 0x00, 0x00, 0xb8, 0xfd, 0xff, 0xff, 0x20, 0x00, 0x00, 0x00,
  0x73, 0x65, 0x71, 0x75, 0x65, 0x6e, 0x74, 0x69, 0x61, 0x6c, 0x5f, 0x31,
  0x2f, 0x64, 0x65, 0x6e, 0x73, 0x65, 0x5f, 0x44, 0x65, 0x6e, 0x73, 0x65,
  0x31, 0x2f, 0x4d, 0x61, 0x74, 0x4d, 0x75, 0x6c, 0x00, 0x00, 0x00, 0x00,
  0x02, 0x00, 0x00, 0x00, 0x40, 0x00, 0x00, 0x00, 0x03, 0x00, 0x00, 0x00,
  0x82, 0xfe, 0xff, 0xff, 0x00, 0x00, 0x00, 0x01, 0x10, 0x00, 0x00, 0x00,
  0x10, 0x00, 0x00, 0x00, 0x08, 0x00, 0x00, 0x00, 0x40, 0x00, 0x00, 0x00,
  0x08, 0xfe, 0xff, 0xff, 0x30, 0x00, 0x00, 0x00, 0x73, 0x65, 0x71, 0x75,
  0x65, 0x6e, 0x74, 0x69, 0x61, 0x6c, 0x5f, 0x31, 0x2f, 0x64, 0x65, 0x6e,
  0x73, 0x65, 0x5f, 0x44, 0x65, 0x6e, 0x73, 0x65, 0x31, 0x2f, 0x42, 0x69,
  0x61, 0x73, 0x41, 0x64, 0x64, 0x2f, 0x52, 0x65, 0x61, 0x64, 0x56, 0x61,
  0x72, 0x69, 0x61, 0x62, 0x6c, 0x65, 0x4f, 0x70, 0x00, 0x00, 0x00, 0x00,
  0x01, 0x00, 0x00, 0x00, 0x40, 0x00, 0x00, 0x00, 0xde, 0xfe, 0xff, 0xff,
  0x00, 0x00, 0x00, 0x01, 0x10, 0x00, 0x00, 0x00, 0x10, 0x00, 0x00, 0x00,
  0x07, 0x00, 0x00, 0x00, 0x1c, 0x00, 0x00, 0x00, 0x64, 0xfe, 0xff, 0xff,
  0x0f, 0x00, 0x00, 0x00, 0x61, 0x72, 0x69, 0x74, 0x68, 0x2e, 0x63, 0x6f,
  0x6e, 0x73, 0x74, 0x61, 0x6e, 0x74, 0x35, 0x00, 0x01, 0x00, 0x00, 0x00,
  0x20, 0x00, 0x00, 0x00, 0x16, 0xff, 0xff, 0xff, 0x00, 0x00, 0x00, 0x01,
  0x10, 0x00, 0x00, 0x00, 0x10, 0x00, 0x00, 0x00, 0x06, 0x00, 0x00, 0x00,
  0x1c, 0x00, 0x00, 0x00, 0x9c, 0xfe, 0xff, 0xff, 0x0f, 0x00, 0x00, 0x00,
  0x61, 0x72, 0x69, 0x74, 0x68, 0x2e, 0x63, 0x6f, 0x6e, 0x73, 0x74, 0x61,
  0x6e, 0x74, 0x34, 0x00, 0x01, 0x00, 0x00, 0x00, 0x10, 0x00, 0x00, 0x00,
  0x4e, 0xff, 0xff, 0xff, 0x00, 0x00, 0x00, 0x01, 0x10, 0x00, 0x00, 0x00,
  0x10, 0x00, 0x00, 0x00, 0x05, 0x00, 0x00, 0x00, 0x1c, 0x00, 0x00, 0x00,
  0xd4, 0xfe, 0xff, 0xff, 0x0f, 0x00, 0x00, 0x00, 0x61, 0x72, 0x69, 0x74,
  0x68, 0x2e, 0x63, 0x6f, 0x6e, 0x73, 0x74, 0x61, 0x6e, 0x74, 0x33, 0x00,
  0x01, 0x00, 0x00, 0x00, 0x01, 0x00, 0x00, 0x00, 0x86, 0xff, 0xff, 0xff,
  0x00, 0x00, 0x00, 0x01, 0x10, 0x00, 0x00, 0x00, 0x10, 0x00, 0x00, 0x00,
  0x04, 0x00, 0x00, 0x00, 0x1c, 0x00, 0x00, 0x00, 0x0c, 0xff, 0xff, 0xff,
  0x0f, 0x00, 0x00, 0x00, 0x61, 0x72, 0x69, 0x74, 0x68, 0x2e, 0x63, 0x6f,
  0x6e, 0x73, 0x74, 0x61, 0x6e, 0x74, 0x32, 0x00, 0x02, 0x00, 0x00, 0x00,
  0x20, 0x00, 0x00, 0x00, 0x40, 0x00, 0x00, 0x00, 0xc2, 0xff, 0xff, 0xff,
  0x00, 0x00, 0x00, 0x01, 0x10, 0x00, 0x00, 0x00, 0x10, 0x00, 0x00, 0x00,
  0x03, 0x00, 0x00, 0x00, 0x1c, 0x00, 0x00, 0x00, 0x48, 0xff, 0xff, 0xff,
  0x0f, 0x00, 0x00, 0x00, 0x61, 0x72, 0x69, 0x74, 0x68, 0x2e, 0x63, 0x6f,
  0x6e, 0x73, 0x74, 0x61, 0x6e, 0x74, 0x31, 0x00, 0x02, 0x00, 0x00, 0x00,
  0x10, 0x00, 0x00, 0x00, 0x20, 0x00, 0x00, 0x00, 0x00, 0x00, 0x16, 0x00,
  0x18, 0x00, 0x14, 0x00, 0x00, 0x00, 0x10, 0x00, 0x0c, 0x00, 0x08, 0x00,
  0x00, 0x00, 0x00, 0x00, 0x00, 0x00, 0x07, 0x00, 0x16, 0x00, 0x00, 0x00,
  0x00, 0x00, 0x00, 0x01, 0x10, 0x00, 0x00, 0x00, 0x10, 0x00, 0x00, 0x00,
  0x02, 0x00, 0x00, 0x00, 0x1c, 0x00, 0x00, 0x00, 0x9c, 0xff, 0xff, 0xff,
  0x0e, 0x00, 0x00, 0x00, 0x61, 0x72, 0x69, 0x74, 0x68, 0x2e, 0x63, 0x6f,
  0x6e, 0x73, 0x74, 0x61, 0x6e, 0x74, 0x00, 0x00, 0x02, 0x00, 0x00, 0x00,
  0x01, 0x00, 0x00, 0x00, 0x10, 0x00, 0x00, 0x00, 0x00, 0x00, 0x16, 0x00,
  0x1c, 0x00, 0x18, 0x00, 0x00, 0x00, 0x14, 0x00, 0x10, 0x00, 0x0c, 0x00,
  0x00, 0x00, 0x00, 0x00, 0x08, 0x00, 0x07, 0x00, 0x16, 0x00, 0x00, 0x00,
  0x00, 0x00, 0x00, 0x01, 0x14, 0x00, 0x00, 0x00, 0x20, 0x00, 0x00, 0x00,
  0x20, 0x00, 0x00, 0x00, 0x01, 0x00, 0x00, 0x00, 0x44, 0x00, 0x00, 0x00,
  0x02, 0x00, 0x00, 0x00, 0xff, 0xff, 0xff, 0xff, 0x03, 0x00, 0x00, 0x00,
  0x04, 0x00, 0x04, 0x00, 0x04, 0x00, 0x00, 0x00, 0x24, 0x00, 0x00, 0x00,
  0x73, 0x65, 0x72, 0x76, 0x69, 0x6e, 0x67, 0x5f, 0x64, 0x65, 0x66, 0x61,
  0x75, 0x6c, 0x74, 0x5f, 0x64, 0x65, 0x6e, 0x73, 0x65, 0x5f, 0x44, 0x65,
  0x6e, 0x73, 0x65, 0x31, 0x5f, 0x69, 0x6e, 0x70, 0x75, 0x74, 0x3a, 0x30,
  0x00, 0x00, 0x00, 0x00, 0x02, 0x00, 0x00, 0x00, 0x01, 0x00, 0x00, 0x00,
  0x03, 0x00, 0x00, 0x00, 0x02, 0x00, 0x00, 0x00, 0x20, 0x00, 0x00, 0x00,
  0x04, 0x00, 0x00, 0x00, 0xf4, 0xff, 0xff, 0xff, 0x0e, 0x00, 0x00, 0x00,
  0x00, 0x00, 0x00, 0x0e, 0x0c, 0x00, 0x0c, 0x00, 0x0b, 0x00, 0x00, 0x00,
  0x00, 0x00, 0x04, 0x00, 0x0c, 0x00, 0x00, 0x00, 0x09, 0x00, 0x00, 0x00,
  0x00, 0x00, 0x00, 0x09
};
unsigned int model_float32_tflite_len = 13996;
