unsigned char model_float32_tflite[] = {
  0x1c, 0x00, 0x00, 0x00, 0x54, 0x46, 0x4c, 0x33, 0x14, 0x00, 0x20, 0x00,
  0x1c, 0x00, 0x18, 0x00, 0x14, 0x00, 0x10, 0x00, 0x0c, 0x00, 0x00, 0x00,
  0x08, 0x00, 0x04, 0x00, 0x14, 0x00, 0x00, 0x00, 0x1c, 0x00, 0x00, 0x00,
  0x98, 0x00, 0x00, 0x00, 0xf0, 0x00, 0x00, 0x00, 0x08, 0x4b, 0x00, 0x00,
  0x18, 0x4b, 0x00, 0x00, 0x64, 0x5a, 0x00, 0x00, 0x03, 0x00, 0x00, 0x00,
  0x01, 0x00, 0x00, 0x00, 0x04, 0x00, 0x00, 0x00, 0x92, 0xb2, 0xff, 0xff,
  0x0c, 0x00, 0x00, 0x00, 0x1c, 0x00, 0x00, 0x00, 0x40, 0x00, 0x00, 0x00,
  0x0f, 0x00, 0x00, 0x00, 0x73, 0x65, 0x72, 0x76, 0x69, 0x6e, 0x67, 0x5f,
  0x64, 0x65, 0x66, 0x61, 0x75, 0x6c, 0x74, 0x00, 0x01, 0x00, 0x00, 0x00,
  0x04, 0x00, 0x00, 0x00, 0x84, 0xff, 0xff, 0xff, 0x1b, 0x00, 0x00, 0x00,
  0x04, 0x00, 0x00, 0x00, 0x0c, 0x00, 0x00, 0x00, 0x64, 0x65, 0x6e, 0x73,
  0x65, 0x5f, 0x44, 0x65, 0x6e, 0x73, 0x65, 0x32, 0x00, 0x00, 0x00, 0x00,
  0x01, 0x00, 0x00, 0x00, 0x04, 0x00, 0x00, 0x00, 0xfe, 0xb5, 0xff, 0xff,
  0x04, 0x00, 0x00, 0x00, 0x14, 0x00, 0x00, 0x00, 0x63, 0x6f, 0x6e, 0x76,
  0x31, 0x64, 0x5f, 0x43, 0x6f, 0x6e, 0x76, 0x31, 0x44, 0x31, 0x5f, 0x69,
  0x6e, 0x70, 0x75, 0x74, 0x00, 0x00, 0x00, 0x00, 0x02, 0x00, 0x00, 0x00,
  0x34, 0x00, 0x00, 0x00, 0x04, 0x00, 0x00, 0x00, 0xdc, 0xff, 0xff, 0xff,
  0x1e, 0x00, 0x00, 0x00, 0x04, 0x00, 0x00, 0x00, 0x13, 0x00, 0x00, 0x00,
  0x43, 0x4f, 0x4e, 0x56, 0x45, 0x52, 0x53, 0x49, 0x4f, 0x4e, 0x5f, 0x4d,
  0x45, 0x54, 0x41, 0x44, 0x41, 0x54, 0x41, 0x00, 0x08, 0x00, 0x0c, 0x00,
  0x08, 0x00, 0x04, 0x00, 0x08, 0x00, 0x00, 0x00, 0x1d, 0x00, 0x00, 0x00,
  0x04, 0x00, 0x00, 0x00, 0x13, 0x00, 0x00, 0x00, 0x6d, 0x69, 0x6e, 0x5f,
  0x72, 0x75, 0x6e, 0x74, 0x69, 0x6d, 0x65, 0x5f, 0x76, 0x65, 0x72, 0x73,
  0x69, 0x6f, 0x6e, 0x00, 0x1f, 0x00, 0x00, 0x00, 0x14, 0x4a, 0x00, 0x00,
  0x0c, 0x4a, 0x00, 0x00, 0x7c, 0x49, 0x00, 0x00, 0x24, 0x49, 0x00, 0x00,
  0x08, 0x49, 0x00, 0x00, 0xec, 0x48, 0x00, 0x00, 0xd0, 0x48, 0x00, 0x00,
  0xc0, 0x10, 0x00, 0x00, 0xf0, 0x09, 0x00, 0x00, 0xa0, 0x09, 0x00, 0x00,
  0x90, 0x01, 0x00, 0x00, 0x7c, 0x01, 0x00, 0x00, 0x2c, 0x01, 0x00, 0x00,
  0x18, 0x01, 0x00, 0x00, 0x04, 0x01, 0x00, 0x00, 0xf0, 0x00, 0x00, 0x00,
  0xe8, 0x00, 0x00, 0x00, 0xe0, 0x00, 0x00, 0x00, 0xd8, 0x00, 0x00, 0x00,
  0xd0, 0x00, 0x00, 0x00, 0xc8, 0x00, 0x00, 0x00, 0xc0, 0x00, 0x00, 0x00,
  0xb8, 0x00, 0x00, 0x00, 0xb0, 0x00, 0x00, 0x00, 0xa8, 0x00, 0x00, 0x00,
  0xa0, 0x00, 0x00, 0x00, 0x98, 0x00, 0x00, 0x00, 0x90, 0x00, 0x00, 0x00,
  0x88, 0x00, 0x00, 0x00, 0x68, 0x00, 0x00, 0x00, 0x04, 0x00, 0x00, 0x00,
  0xfe, 0xb6, 0xff, 0xff, 0x04, 0x00, 0x00, 0x00, 0x54, 0x00, 0x00, 0x00,
  0x0c, 0x00, 0x00, 0x00, 0x08, 0x00, 0x0e, 0x00, 0x08, 0x00, 0x04, 0x00,
  0x08, 0x00, 0x00, 0x00, 0x10, 0x00, 0x00, 0x00, 0x24, 0x00, 0x00, 0x00,
  0x00, 0x00, 0x06, 0x00, 0x08, 0x00, 0x04, 0x00, 0x06, 0x00, 0x00, 0x00,
  0x04, 0x00, 0x00, 0x00, 0x00, 0x00, 0x00, 0x00, 0x00, 0x00, 0x0a, 0x00,
  0x10, 0x00, 0x0c, 0x00, 0x08, 0x00, 0x04, 0x00, 0x0a, 0x00, 0x00, 0x00,
  0x02, 0x00, 0x00, 0x00, 0x02, 0x00, 0x00, 0x00, 0x04, 0x00, 0x00, 0x00,
  0x06, 0x00, 0x00, 0x00, 0x32, 0x2e, 0x31, 0x36, 0x2e, 0x31, 0x00, 0x00,
  0x5e, 0xb7, 0xff, 0xff, 0x04, 0x00, 0x00, 0x00, 0x10, 0x00, 0x00, 0x00,
  0x31, 0x2e, 0x31, 0x34, 0x2e, 0x30, 0x00, 0x00, 0x00, 0x00, 0x00, 0x00,
  0x00, 0x00, 0x00, 0x00, 0xc0, 0xa7, 0xff, 0xff, 0xc4, 0xa7, 0xff, 0xff,
  0xc8, 0xa7, 0xff, 0xff, 0xcc, 0xa7, 0xff, 0xff, 0xd0, 0xa7, 0xff, 0xff,
  0xd4, 0xa7, 0xff, 0xff, 0xd8, 0xa7, 0xff, 0xff, 0xdc, 0xa7, 0xff, 0xff,
  0xe0, 0xa7, 0xff, 0xff, 0xe4, 0xa7, 0xff, 0xff, 0xe8, 0xa7, 0xff, 0xff,
  0xec, 0xa7, 0xff, 0xff, 0xf0, 0xa7, 0xff, 0xff, 0xae, 0xb7, 0xff, 0xff,
  0x04, 0x00, 0x00, 0x00, 0x04, 0x00, 0x00, 0x00, 0xfd, 0xff, 0xff, 0xff,
  0xbe, 0xb7, 0xff, 0xff, 0x04, 0x00, 0x00, 0x00, 0x04, 0x00, 0x00, 0x00,
  0x01, 0x00, 0x00, 0x00, 0xce, 0xb7, 0xff, 0xff, 0x04, 0x00, 0x00, 0x00,
  0x04, 0x00, 0x00, 0x00, 0x02, 0x00, 0x00, 0x00, 0xde, 0xb7, 0xff, 0xff,
  0x04, 0x00, 0x00, 0x00, 0x40, 0x00, 0x00, 0x00, 0x8c, 0xeb, 0xdc, 0x3e,
  0x29, 0xd4, 0x1b, 0xbe, 0x26, 0x78, 0xdf, 0xbd, 0x34, 0x63, 0xe1, 0x3d,
  0x16, 0xa9, 0x98, 0x3d, 0x4c, 0x97, 0xc4, 0x3d, 0x63, 0x4f, 0xaa, 0x3e,
  0x67, 0xce, 0xb8, 0xbd, 0xde, 0x3a, 0xf7, 0xbe, 0x92, 0x75, 0x8b, 0xbe,
  0x5e, 0x54, 0x0e, 0x3e, 0x98, 0x28, 0x18, 0x3e, 0x5f, 0x3e, 0x34, 0x3f,
  0x72, 0xb4, 0x0e, 0xbd, 0x10, 0x97, 0x4c, 0x3e, 0xeb, 0x66, 0xad, 0x3b,
  0x2a, 0xb8, 0xff, 0xff, 0x04, 0x00, 0x00, 0x00, 0x04, 0x00, 0x00, 0x00,
  0x94, 0xe9, 0x09, 0xbd, 0x3a, 0xb8, 0xff, 0xff, 0x04, 0x00, 0x00, 0x00,
  0x00, 0x08, 0x00, 0x00, 0x3d, 0x0c, 0xea, 0x3d, 0x9a, 0xa5, 0x6c, 0xbe,
  0xfc, 0xa0, 0x7f, 0x3e, 0xa7, 0x46, 0x06, 0xbf, 0xfd, 0x9d, 0x59, 0x3e,
  0x26, 0x68, 0xfc, 0x3d, 0xb3, 0x4f, 0xea, 0xbd, 0x45, 0x12, 0x10, 0xbf,
  0x76, 0xbe, 0x5d, 0xbd, 0xc0, 0x21, 0xee, 0x3e, 0x10, 0x33, 0x01, 0x3e,
  0x0c, 0x07, 0xaa, 0xbe, 0x00, 0xcd, 0x5d, 0xbe, 0xb9, 0xc0, 0x87, 0x3e,
  0x20, 0x23, 0x97, 0xbd, 0x75, 0xc0, 0xbd, 0xbe, 0x8e, 0x7a, 0x7b, 0x3f,
  0xdc, 0x44, 0x9a, 0xbe, 0x87, 0xdf, 0x73, 0xbe, 0x7c, 0xb2, 0x85, 0xbe,
  0xa0, 0x95, 0x94, 0xba, 0x72, 0x88, 0x20, 0x3e, 0xea, 0x2e, 0x40, 0x3e,
  0x25, 0x4c, 0x84, 0x3e, 0x98, 0x61, 0x63, 0x3e, 0x11, 0xbf, 0x03, 0x3f,
  0xb4, 0xeb, 0xb5, 0xbe, 0x02, 0x6b, 0x1f, 0xbe, 0x11, 0x61, 0xa5, 0x3e,
  0x56, 0xbb, 0x7b, 0xbe, 0x79, 0x99, 0x6a, 0x3e, 0x85, 0x33, 0x8a, 0xbe,
  0xd9, 0x0d, 0xaa, 0x3e, 0x61, 0xd0, 0x12, 0xbe, 0x21, 0x9a, 0x2b, 0x3e,
  0x9a, 0x3d, 0xa0, 0x3d, 0x68, 0xaa, 0x80, 0x3e, 0x98, 0x2d, 0x6a, 0x3e,
  0x12, 0x99, 0xd5, 0xbd, 0x9d, 0x42, 0x03, 0x3f, 0xdc, 0x15, 0x13, 0xbd,
  0x81, 0xff, 0x42, 0x3f, 0x93, 0x0d, 0x87, 0xbe, 0xf2, 0xb6, 0xe2, 0x3b,
  0x0f, 0x25, 0xbc, 0xbd, 0x44, 0xaa, 0xc4, 0x3d, 0x7c, 0x20, 0x33, 0x3e,
  0xb8, 0x30, 0xc4, 0x3d, 0x80, 0x91, 0x07, 0x3f, 0xf8, 0x18, 0x3b, 0x3e,
  0x04, 0x38, 0xc5, 0x3d, 0x1e, 0x22, 0x14, 0x3e, 0x42, 0x2c, 0xf7, 0x3e,
  0x4e, 0xd8, 0xc6, 0xbc, 0x10, 0xa0, 0x1d, 0x3e, 0xea, 0x66, 0xce, 0x3e,
  0xd0, 0xf3, 0x6a, 0x3d, 0xfd, 0xa7, 0xf3, 0x3d, 0x6f, 0x1a, 0xea, 0x3c,
  0x56, 0xb7, 0xd9, 0x3d, 0x38, 0x01, 0x05, 0x3f, 0x4b, 0xb8, 0x48, 0xbe,
  0xb0, 0x7d, 0xb6, 0xbe, 0xc3, 0x8a, 0xfe, 0x3c, 0x30, 0x79, 0x06, 0x3e,
  0xa5, 0xdc, 0x9b, 0xbd, 0x93, 0xd3, 0xd4, 0xbd, 0x10, 0x3c, 0x85, 0xbe,
  0x29, 0x38, 0xa1, 0x3e, 0x99, 0xc5, 0xc1, 0x3b, 0x94, 0x64, 0x97, 0x3c,
  0x5c, 0x68, 0x29, 0xbe, 0xd1, 0x59, 0x25, 0x3e, 0x95, 0xc2, 0x81, 0xbe,
  0xcb, 0x5b, 0x0d, 0xbe, 0x07, 0x20, 0x8d, 0xbe, 0x84, 0x68, 0x84, 0x3e,
  0x64, 0xff, 0x01, 0xbe, 0xc1, 0x55, 0xa7, 0x3d, 0xd8, 0xf8, 0xcb, 0xbb,
  0x16, 0xe8, 0x8e, 0xbd, 0xd8, 0xc4, 0x61, 0xbe, 0x8e, 0x59, 0x9f, 0x3d,
  0x8b, 0xc3, 0xd8, 0xbe, 0x75, 0x05, 0x90, 0x3e, 0x1c, 0xb3, 0xc0, 0xbd,
  0x77, 0x58, 0xe0, 0x3d, 0x46, 0x21, 0x7b, 0x3d, 0xaf, 0x11, 0x9e, 0xbe,
  0x4d, 0x22, 0x6e, 0x3e, 0x57, 0xd7, 0x46, 0xbd, 0xc8, 0x0d, 0xcc, 0xbe,
  0x96, 0x34, 0x34, 0xbe, 0x25, 0xa6, 0xc0, 0xbe, 0x78, 0x18, 0x1e, 0x3d,
  0x28, 0xb9, 0x8c, 0xbd, 0x8a, 0x24, 0x37, 0xbe, 0x47, 0x11, 0xc4, 0x3e,
  0x20, 0xd2, 0xae, 0xbd, 0x99, 0xe2, 0x8c, 0x3e, 0x2b, 0x4e, 0x90, 0xbe,
  0xd4, 0xfa, 0xeb, 0xbd, 0xfb, 0x84, 0x6e, 0xbd, 0xc7, 0x78, 0xcd, 0x3e,
  0xc8, 0xa2, 0xdf, 0x3d, 0xc6, 0x45, 0xeb, 0xbe, 0x80, 0xae, 0x07, 0x3e,
  0x44, 0x5e, 0x97, 0x3e, 0x1e, 0x67, 0xb9, 0xbd, 0xd6, 0x3f, 0x53, 0xbe,
  0x75, 0x94, 0xb5, 0xbd, 0xd7, 0x8d, 0x58, 0x3e, 0x97, 0xda, 0xd2, 0xbe,
  0x41, 0x86, 0x29, 0x3e, 0x74, 0xdb, 0x72, 0x3e, 0xd1, 0xa8, 0x42, 0x3e,
  0xaa, 0xd2, 0x0b, 0x3d, 0x2b, 0x3c, 0x29, 0x3e, 0xe5, 0x0a, 0x01, 0x3e,
  0xbb, 0x71, 0xb1, 0xbe, 0xe3, 0x55, 0xb7, 0x3e, 0x8f, 0x54, 0xa8, 0xbd,
  0x3e, 0xd4, 0x33, 0x3e, 0x56, 0xdd, 0x23, 0x3e, 0xb2, 0x96, 0x80, 0xbe,
  0xd7, 0xb9, 0x18, 0x3d, 0x12, 0xaa, 0x37, 0x3e, 0x8f, 0x69, 0x0f, 0x3e,
  0x46, 0xca, 0xa2, 0xbe, 0xd2, 0xc2, 0x66, 0x3e, 0xbb, 0x3d, 0x83, 0xbe,
  0x72, 0x57, 0xdd, 0x3e, 0xce, 0xc4, 0x0a, 0xbe, 0xcc, 0x5b, 0x02, 0xbd,
  0x18, 0xbe, 0x67, 0x3e, 0x30, 0xb2, 0xfa, 0x3b, 0x6d, 0xa9, 0xc9, 0x3e,
  0x92, 0x4e, 0x12, 0xbe, 0x89, 0x87, 0x34, 0x3e, 0xdb, 0x89, 0x5f, 0x3e,
  0x10, 0x99, 0x9b, 0xbd, 0x32, 0x02, 0x0a, 0xbe, 0xdd, 0xc1, 0x53, 0xbe,
  0xaf, 0xb2, 0xd0, 0x3e, 0x3a, 0x74, 0xef, 0xbe, 0xdd, 0x09, 0x3a, 0x3e,
  0xdd, 0x0b, 0xce, 0x3d, 0xeb, 0x4a, 0xce, 0x3d, 0x9b, 0xae, 0x08, 0x3e,
  0x5b, 0xc1, 0x14, 0x3e, 0xf9, 0x3d, 0x9f, 0xbd, 0xdd, 0xd9, 0x2a, 0xbe,
  0xec, 0xa5, 0xa5, 0x3e, 0xab, 0x8d, 0xa8, 0xbe, 0xf4, 0x05, 0x0d, 0x3e,
  0x76, 0xb9, 0xb7, 0xbd, 0x59, 0xdd, 0x91, 0xbe, 0x74, 0xa8, 0x3e, 0x3b,
  0xe0, 0xb4, 0xaa, 0x3d, 0xfb, 0x21, 0x3c, 0x3d, 0x46, 0xa9, 0x03, 0x3d,
  0xe3, 0x82, 0x8a, 0x3e, 0xc4, 0xa0, 0xd6, 0xbe, 0xca, 0x19, 0x6c, 0x3e,
  0x4a, 0x3d, 0xaa, 0xbe, 0xa5, 0x4b, 0xc8, 0xbe, 0xfa, 0x46, 0x65, 0x3e,
  0x89, 0xd7, 0x21, 0x3e, 0x8c, 0xd4, 0xdb, 0x3e, 0x9b, 0xad, 0x82, 0xbe,
  0x10, 0x0b, 0x26, 0x3e, 0xd0, 0x41, 0xb3, 0x3e, 0x5a, 0x26, 0x8f, 0xbc,
  0x5b, 0x60, 0x71, 0xbe, 0xd7, 0x17, 0x5c, 0x3e, 0xf4, 0xe8, 0xb8, 0x3d,
  0x50, 0x27, 0xd9, 0xbe, 0xbf, 0xbb, 0x01, 0x3e, 0x6f, 0xc5, 0xfd, 0xbd,
  0x88, 0x9a, 0x2c, 0x3f, 0x13, 0x47, 0x9d, 0xbe, 0xdf, 0x45, 0x5f, 0x3e,
  0x51, 0xc3, 0x81, 0x3e, 0x9c, 0xe5, 0x98, 0xbd, 0x5e, 0x77, 0x73, 0xbb,
  0xc8, 0x7c, 0x0b, 0xbf, 0xae, 0x65, 0xd8, 0x3e, 0xcf, 0xbf, 0xa8, 0x3e,
  0xd2, 0x46, 0x3c, 0xbe, 0xf2, 0x7f, 0xdf, 0x3e, 0x4b, 0x87, 0xbb, 0x3d,
  0x78, 0x0e, 0xa0, 0x3e, 0x17, 0xa8, 0x93, 0xbd, 0x6e, 0x77, 0xd3, 0xbe,
  0x99, 0x2b, 0x91, 0xbd, 0xf5, 0x26, 0xe1, 0xbe, 0xa4, 0x16, 0xda, 0xbd,
  0x8c, 0x10, 0x00, 0xbe, 0xbb, 0x35, 0xf6, 0xbd, 0xeb, 0x88, 0x17, 0xbf,
  0x90, 0x1a, 0xbf, 0xbd, 0xc6, 0xc8, 0x45, 0x3f, 0x10, 0xe2, 0xf7, 0x3e,
  0xbe, 0x39, 0x2d, 0xbe, 0xa1, 0xad, 0x54, 0x3d, 0x06, 0x0d, 0xdb, 0x3e,
  0x6a, 0x81, 0xe2, 0x3d, 0xb6, 0xee, 0x2d, 0xbf, 0xa5, 0x71, 0xc3, 0x3e,
  0xba, 0xce, 0x47, 0xbf, 0x82, 0x5c, 0xae, 0x3e, 0x93, 0x04, 0x1c, 0xbf,
  0x66, 0x84, 0x23, 0xbe, 0x57, 0x3f, 0x94, 0x3e, 0xef, 0x76, 0xa8, 0x3d,
  0x25, 0x90, 0xba, 0x3d, 0xbc, 0x30, 0xe3, 0x3d, 0xed, 0x6a, 0xe4, 0xbd,
  0x01, 0xc6, 0xa1, 0xbe, 0xc8, 0xe9, 0x05, 0xbf, 0x68, 0x5f, 0xa0, 0x3e,
  0x12, 0x3d, 0x9e, 0xbd, 0x88, 0x03, 0xcd, 0x3e, 0x84, 0x53, 0x80, 0x3e,
  0xda, 0x6a, 0xdb, 0x3e, 0x88, 0x0b, 0x94, 0x3d, 0x03, 0x7e, 0x37, 0x3e,
  0xea, 0xb1, 0xea, 0xbd, 0x92, 0x0b, 0x5f, 0x3e, 0xdb, 0x60, 0x41, 0x3e,
  0x01, 0x7e, 0x88, 0x3e, 0x62, 0x13, 0xd3, 0x3d, 0x91, 0x1a, 0x58, 0xbe,
  0xae, 0xec, 0xb0, 0x3e, 0x13, 0xb7, 0x46, 0x3e, 0xc9, 0xc1, 0x00, 0x3d,
  0x94, 0x9e, 0x06, 0xbe, 0x08, 0x92, 0xac, 0x3e, 0x22, 0x92, 0xba, 0xbc,
  0xc9, 0x96, 0xa2, 0x3e, 0x93, 0xae, 0x99, 0x3e, 0xda, 0xfa, 0xd7, 0x3d,
  0x88, 0x2a, 0x47, 0xbe, 0x80, 0x10, 0xb2, 0xbc, 0xaf, 0xb4, 0xf5, 0x3e,
  0x39, 0x69, 0x08, 0x3e, 0x2b, 0x50, 0x52, 0xbe, 0x3b, 0x3b, 0xc4, 0x3e,
  0xb8, 0xfb, 0xf1, 0xbd, 0x25, 0xd6, 0x4c, 0x3e, 0xae, 0x2f, 0x36, 0x3e,
  0x22, 0xbe, 0x56, 0x3e, 0x04, 0x9a, 0xa8, 0x3e, 0x2e, 0x9f, 0x47, 0xbe,
  0x6a, 0xc6, 0x02, 0xbf, 0x30, 0x68, 0x56, 0xbe, 0x6d, 0x22, 0xf7, 0xbd,
  0xb4, 0x8e, 0xb3, 0x3d, 0xce, 0x9f, 0xad, 0x3d, 0x74, 0x8d, 0x83, 0x3e,
  0x77, 0xc0, 0xf5, 0x3d, 0xef, 0x0c, 0xcf, 0x3e, 0xf9, 0x09, 0x60, 0x3e,
  0xe6, 0x49, 0xb8, 0x3e, 0xb7, 0x3c, 0xa2, 0x3a, 0x6d, 0xec, 0xa2, 0x3e,
  0x76, 0x28, 0xe2, 0xbe, 0x3c, 0x4a, 0x3f, 0xbe, 0x12, 0xed, 0x9e, 0x3d,
  0xd3, 0x8a, 0x20, 0xbc, 0x46, 0x04, 0x5f, 0xbe, 0xaf, 0xbf, 0x02, 0x3f,
  0xf5, 0x96, 0x0b, 0xbf, 0x54, 0xdb, 0xb3, 0x3e, 0x9a, 0xad, 0xb2, 0x3c,
  0xcb, 0xd0, 0x22, 0x3e, 0xfe, 0x0f, 0x81, 0x3e, 0x7c, 0xf7, 0x52, 0xbe,
  0x40, 0xa8, 0x12, 0xbe, 0x2c, 0x72, 0x83, 0x3e, 0xca, 0xf3, 0x5d, 0xbe,
  0x6a, 0x3b, 0x00, 0x3f, 0x17, 0x92, 0x59, 0x3e, 0xbf, 0x28, 0x93, 0x3e,
  0xaa, 0xb2, 0xe6, 0x3e, 0xcc, 0x13, 0x84, 0xbe, 0x1a, 0xc6, 0x0e, 0xbf,
  0xc9, 0xe2, 0x57, 0x3e, 0x46, 0xb3, 0x26, 0x3e, 0x7e, 0xfc, 0x05, 0x3e,
  0x26, 0xf2, 0x84, 0x3e, 0xba, 0x0a, 0x92, 0xba, 0x23, 0x5b, 0xcf, 0x3e,
  0xa5, 0x5d, 0x2a, 0x3d, 0xe1, 0xdf, 0x3f, 0xbc, 0xc2, 0x41, 0xe8, 0xba,
  0xf2, 0x58, 0xfa, 0x3b, 0xa7, 0x7f, 0xef, 0xbd, 0x17, 0xb9, 0x55, 0xbe,
  0x1d, 0xb7, 0x37, 0x3e, 0xb3, 0x73, 0x92, 0xbe, 0x9f, 0x34, 0x07, 0x3f,
  0x50, 0x22, 0xa0, 0x3e, 0x56, 0x8a, 0x84, 0x3e, 0x22, 0xd7, 0x1a, 0xbf,
  0xcd, 0xf7, 0x85, 0x3e, 0xa4, 0xcb, 0x58, 0x3e, 0xc2, 0x66, 0x51, 0x3d,
  0x65, 0x60, 0xfd, 0x3d, 0x4a, 0x8b, 0xbc, 0xbd, 0xad, 0xbb, 0xae, 0xbc,
  0x71, 0x4d, 0x10, 0xbe, 0xbb, 0xe2, 0x0e, 0xbe, 0x34, 0xde, 0x96, 0xbd,
  0x62, 0x23, 0xb9, 0xbd, 0xcf, 0x43, 0xd2, 0x3d, 0xbd, 0xdb, 0xfd, 0x3e,
  0xb8, 0x2e, 0xd5, 0xbd, 0x70, 0xd6, 0x38, 0xbe, 0x2d, 0xbc, 0xb6, 0x3c,
  0xbf, 0x08, 0xee, 0xbd, 0xd2, 0xdf, 0xc4, 0x3e, 0x68, 0xd5, 0x5c, 0xbd,
  0xd3, 0x82, 0x30, 0x3f, 0x6b, 0x72, 0x7b, 0xbe, 0x21, 0xa8, 0xc3, 0xbe,
  0x21, 0xdc, 0x2c, 0x3d, 0xa8, 0x21, 0xba, 0xbd, 0x81, 0x85, 0x82, 0x3e,
  0x42, 0xe7, 0x1a, 0xbe, 0x98, 0x94, 0x1f, 0x3e, 0xa6, 0x93, 0x66, 0x3e,
  0x9c, 0x68, 0xb3, 0xbd, 0x7a, 0xd9, 0x0e, 0xbe, 0xd2, 0xfd, 0xde, 0xbd,
  0xbd, 0xc6, 0x3a, 0x3e, 0x5e, 0x5e, 0x5c, 0xbe, 0x95, 0xd3, 0xe8, 0xbd,
  0x51, 0xbe, 0xa3, 0xbe, 0x9b, 0x11, 0xb9, 0x3e, 0xd4, 0xa5, 0x58, 0xbe,
  0x99, 0xa3, 0xd4, 0x3d, 0xde, 0x1a, 0xd0, 0xbe, 0xb6, 0x7c, 0x26, 0xbe,
  0xc3, 0xe9, 0x10, 0xbe, 0x79, 0x39, 0x30, 0x3e, 0xa5, 0x5b, 0x74, 0x3e,
  0x86, 0x1e, 0x7d, 0xbe, 0xbe, 0x16, 0x85, 0x3d, 0xcb, 0x88, 0x62, 0xbd,
  0xbe, 0xc2, 0xcf, 0x3d, 0xd7, 0xfb, 0x00, 0x3e, 0x53, 0x5e, 0xa7, 0xbd,
  0x57, 0x45, 0x19, 0x3c, 0x61, 0x26, 0xe6, 0xbe, 0x6f, 0x8d, 0x95, 0x3e,
  0xaa, 0x91, 0x31, 0xbc, 0xfb, 0x21, 0x77, 0xbe, 0x05, 0x41, 0x86, 0x3e,
  0x31, 0xb8, 0xeb, 0x3e, 0x0a, 0xe8, 0x02, 0xbe, 0x7e, 0xc5, 0x62, 0xbe,
  0x6f, 0x02, 0x0f, 0x3e, 0xf6, 0x82, 0x92, 0xbe, 0x91, 0xe9, 0x58, 0x3e,
  0xba, 0x6c, 0x0c, 0xbf, 0x88, 0xd9, 0xdb, 0xba, 0xea, 0xea, 0xc3, 0xbd,
  0x94, 0x1a, 0xd9, 0xbe, 0x3b, 0x17, 0x9b, 0x3d, 0x76, 0x34, 0x28, 0xbd,
  0x2a, 0xe2, 0xa0, 0x3e, 0xf1, 0x7b, 0x45, 0xbe, 0xe5, 0xef, 0x05, 0x3e,
  0xee, 0x85, 0x08, 0xbe, 0x86, 0x9b, 0xdf, 0xbd, 0x3b, 0x90, 0x3a, 0x3d,
  0x84, 0xd0, 0xf3, 0xbe, 0x1e, 0x70, 0x8a, 0x3e, 0x9f, 0xfd, 0x85, 0x3e,
  0x36, 0x14, 0xbf, 0xbe, 0x1c, 0x12, 0x91, 0x3e, 0x31, 0x7d, 0x70, 0x3e,
  0xa6, 0x7b, 0x26, 0xbd, 0x38, 0x16, 0xc2, 0xbd, 0x3f, 0xb1, 0x48, 0xbf,
  0xe0, 0xe6, 0xee, 0x3c, 0xc1, 0x70, 0x61, 0xbf, 0xf4, 0xde, 0xde, 0x3c,
  0xcd, 0xb4, 0x2f, 0xbd, 0x33, 0xd8, 0x4a, 0x3e, 0xe2, 0x44, 0x22, 0xbf,
  0x8b, 0xd5, 0xf1, 0xbe, 0xca, 0x29, 0x42, 0x3f, 0x95, 0xbb, 0xc2, 0x3e,
  0x78, 0xd0, 0x1d, 0xbf, 0x64, 0xbf, 0x1e, 0xbe, 0xad, 0x54, 0xf8, 0x3d,
  0xea, 0x99, 0x5e, 0x3e, 0xff, 0xa9, 0x66, 0xbf, 0x64, 0x03, 0x54, 0x3f,
  0xca, 0x2d, 0x57, 0xbf, 0x59, 0xa0, 0x4c, 0xbe, 0xfb, 0x40, 0x5b, 0xbf,
  0x38, 0xe9, 0xaf, 0xbd, 0x3b, 0x0c, 0xae, 0x3e, 0xd3, 0x86, 0xa8, 0x3d,
  0x2c, 0xb3, 0xef, 0x3d, 0x60, 0xc3, 0x19, 0x3e, 0xa9, 0xdd, 0x83, 0xbe,
  0x31, 0xbd, 0x87, 0xbf, 0xc0, 0x7f, 0xcb, 0xbe, 0x88, 0x85, 0x20, 0x3d,
  0x88, 0x89, 0x60, 0xbf, 0x16, 0xb7, 0xe7, 0x3e, 0x24, 0xcc, 0x88, 0xbc,
  0xce, 0x9f, 0x66, 0x3e, 0x63, 0x89, 0x07, 0xbe, 0x2a, 0xeb, 0x90, 0xbc,
  0x5d, 0x2c, 0x77, 0x3e, 0x42, 0xda, 0x8d, 0xbe, 0x18, 0xa9, 0x29, 0xbe,
  0x48, 0x7c, 0x72, 0x3e, 0x20, 0xae, 0x24, 0x3e, 0x1f, 0x23, 0x68, 0xbe,
  0x3c, 0x43, 0x01, 0x3e, 0x7d, 0x3d, 0x4d, 0xbe, 0x3e, 0x75, 0x82, 0x3d,
  0x73, 0xa6, 0x7b, 0x3e, 0x48, 0x9c, 0x33, 0xbe, 0xed, 0x09, 0x66, 0x3e,
  0x27, 0xee, 0x07, 0x3d, 0x8a, 0xa4, 0x95, 0xbd, 0x53, 0x56, 0xb0, 0xbc,
  0x25, 0xc6, 0x0f, 0x3e, 0xf6, 0xa4, 0x8a, 0xbd, 0xb3, 0x1b, 0x11, 0x3e,
  0xbe, 0x17, 0x84, 0xbd, 0x2a, 0x0a, 0xd4, 0xba, 0x0f, 0x97, 0xf0, 0x3c,
  0x71, 0x67, 0x60, 0xbe, 0x98, 0x7e, 0x8d, 0xbe, 0x5b, 0x3e, 0x8c, 0x3c,
  0x49, 0x3c, 0xc5, 0xbe, 0xd8, 0xef, 0xf2, 0xbd, 0x0a, 0x68, 0xd7, 0xbe,
  0x2a, 0x6e, 0xa0, 0xbe, 0x01, 0x3f, 0x46, 0x3c, 0x26, 0xa9, 0xad, 0xbe,
  0xf7, 0xd2, 0x3b, 0x3d, 0xae, 0xe6, 0xb8, 0xbe, 0x8f, 0x43, 0x04, 0x3f,
  0x80, 0xc7, 0xa8, 0xbe, 0x5d, 0x31, 0xab, 0xbe, 0x7a, 0x81, 0x68, 0xbd,
  0xbb, 0xaf, 0x99, 0x3e, 0x27, 0xcc, 0x34, 0xbc, 0xda, 0x6a, 0x91, 0xbe,
  0xd2, 0x30, 0x35, 0x3e, 0x24, 0x52, 0x82, 0x3e, 0xfe, 0xcc, 0x4e, 0xbe,
  0x40, 0xbb, 0xa3, 0xbd, 0x3c, 0xd3, 0x2d, 0xbe, 0xf9, 0x1a, 0x1f, 0x3e,
  0xfe, 0x7d, 0xbc, 0xbe, 0x4d, 0xd5, 0x71, 0x3e, 0x42, 0x5b, 0x81, 0xbd,
  0x92, 0x0f, 0x9b, 0x3c, 0xe3, 0x56, 0x45, 0x3e, 0x49, 0x3e, 0xc0, 0x3d,
  0xe7, 0x3f, 0x61, 0xbe, 0x1a, 0x62, 0xdc, 0xbe, 0xb4, 0x2f, 0x80, 0x3d,
  0x28, 0x96, 0x80, 0xbe, 0x10, 0x17, 0xae, 0x3e, 0xba, 0xe4, 0xec, 0x3d,
  0x0b, 0x10, 0x88, 0xbe, 0x7d, 0x4e, 0x5c, 0x3e, 0xbf, 0xe8, 0x18, 0x3e,
  0x71, 0x3a, 0xb0, 0x3e, 0xac, 0x63, 0x22, 0xbe, 0x0d, 0x56, 0xb4, 0x3c,
  0x4d, 0x59, 0x8a, 0xbe, 0x36, 0xb9, 0x2c, 0xbd, 0x53, 0x05, 0x74, 0xbc,
  0xef, 0x4a, 0x10, 0xbe, 0x2e, 0x9c, 0xb4, 0x3e, 0xa0, 0x42, 0x27, 0xbe,
  0xcf, 0x55, 0x93, 0xbe, 0x3e, 0x26, 0xe1, 0x3b, 0x99, 0xb3, 0xf8, 0xba,
  0x6c, 0x09, 0x8a, 0xbe, 0xd6, 0xc0, 0xa5, 0xbd, 0xaa, 0xa0, 0x39, 0xbe,
  0x22, 0xf5, 0x01, 0x3e, 0xf3, 0x03, 0x2c, 0xbe, 0x3a, 0x87, 0x81, 0xbc,
  0xfe, 0xa6, 0xad, 0x3e, 0x84, 0x09, 0xbb, 0x3d, 0x30, 0x61, 0x8d, 0xbd,
  0x2c, 0xcc, 0xd1, 0xbe, 0xcd, 0x72, 0x10, 0xbc, 0x34, 0x79, 0x81, 0xbe,
  0xa9, 0x3c, 0x7f, 0xbe, 0x94, 0xd5, 0x27, 0xbd, 0x37, 0xd6, 0x0a, 0x3e,
  0x60, 0x14, 0x1e, 0x3e, 0xf5, 0xca, 0x8b, 0xbd, 0x1f, 0x1b, 0xdb, 0x3d,
  0x07, 0xa2, 0x87, 0xbe, 0x4a, 0x46, 0xb8, 0x3a, 0x0c, 0x6d, 0x8a, 0xbe,
  0x46, 0xc0, 0xff, 0xff, 0x04, 0x00, 0x00, 0x00, 0x40, 0x00, 0x00, 0x00,
  0xd9, 0x8b, 0x41, 0xbf, 0x6a, 0xef, 0xdf, 0xbe, 0x2c, 0x8e, 0x31, 0x3e,
  0xc0, 0x6a, 0xf1, 0x3e, 0x2b, 0xab, 0x03, 0x3f, 0x3d, 0x03, 0x63, 0x3f,
  0x32, 0x5e, 0x79, 0xbf, 0xd4, 0x73, 0x48, 0xbf, 0x50, 0xa9, 0x6c, 0xbe,
  0x1b, 0x92, 0xad, 0xbe, 0xa4, 0x04, 0xaf, 0x3e, 0xdb, 0xf5, 0x74, 0x3e,
  0xde, 0xe7, 0x7c, 0xbf, 0x12, 0xcf, 0xf0, 0x3c, 0xc1, 0x6d, 0xb2, 0x3e,
  0x64, 0x26, 0x79, 0x3e, 0x92, 0xc0, 0xff, 0xff, 0x04, 0x00, 0x00, 0x00,
  0xc0, 0x06, 0x00, 0x00, 0x57, 0x4e, 0x2c, 0x3d, 0x47, 0x19, 0x67, 0x3c,
  0x7e, 0x21, 0xaa, 0xbe, 0x1e, 0x71, 0x89, 0x3e, 0x05, 0xd8, 0xd7, 0x3d,
  0x30, 0x56, 0xc4, 0xbe, 0x0f, 0xea, 0xb7, 0x3e, 0xb6, 0xfe, 0xf5, 0x3d,
  0x07, 0x70, 0xf6, 0xbe, 0x7d, 0x63, 0x8f, 0x3e, 0x6b, 0xa2, 0xeb, 0x3d,
  0x1c, 0x98, 0x87, 0xbe, 0x7e, 0x6f, 0x9a, 0x3e, 0xa8, 0xac, 0x0a, 0xbe,
  0xf1, 0x39, 0xa3, 0xbe, 0xab, 0x80, 0xc3, 0x3e, 0xf1, 0xa8, 0xb1, 0x3d,
  0x07, 0x96, 0x02, 0xbf, 0x66, 0x47, 0x7c, 0x3d, 0xfd, 0x33, 0xab, 0x3d,
  0xa7, 0xeb, 0xb3, 0xbe, 0x22, 0x9c, 0x3f, 0x3e, 0x8c, 0xaa, 0x06, 0x3d,
  0xcb, 0x69, 0x23, 0xbe, 0x5d, 0x95, 0xdc, 0x3d, 0xa3, 0xbd, 0xa3, 0x3c,
  0x90, 0x7e, 0x35, 0xbe, 0xf9, 0xa7, 0x2d, 0xbc, 0xf1, 0x11, 0x2e, 0xbe,
  0xfa, 0xbe, 0x46, 0x3e, 0x6e, 0x21, 0x86, 0xbe, 0xc0, 0xc9, 0x8c, 0xbe,
  0xd4, 0x23, 0x89, 0x3d, 0xee, 0xe0, 0x49, 0x3c, 0xf8, 0xf0, 0x7e, 0xbe,
  0x54, 0x67, 0x22, 0x3e, 0x01, 0xf1, 0x25, 0xbe, 0xca, 0xf0, 0x65, 0xbe,
  0xcd, 0x33, 0x83, 0x3e, 0xd1, 0xd7, 0x51, 0xbd, 0x38, 0x80, 0x16, 0xbe,
  0xb5, 0x95, 0x57, 0x3d, 0xdd, 0xff, 0xf4, 0xbd, 0x6e, 0xe7, 0x2f, 0xbe,
  0x83, 0x11, 0xd8, 0x3d, 0xeb, 0x51, 0x0c, 0xbe, 0xb7, 0xfa, 0x54, 0xbd,
  0xbf, 0x6b, 0x9b, 0x3e, 0x9d, 0x49, 0xbf, 0xbc, 0x1c, 0x90, 0xb9, 0xbd,
  0xc1, 0x34, 0x57, 0x3e, 0x84, 0xdc, 0xd8, 0x3c, 0x20, 0x9e, 0xed, 0x3d,
  0xc7, 0x9e, 0x82, 0x3e, 0x40, 0xc7, 0xd9, 0xbd, 0xf3, 0x82, 0x6b, 0xbe,
  0xad, 0x85, 0x4e, 0x3e, 0x50, 0x82, 0x30, 0xbe, 0x46, 0x74, 0x8d, 0xbe,
  0xdb, 0x18, 0x5e, 0x3d, 0xf8, 0xfe, 0xa1, 0xbe, 0x57, 0x75, 0x4f, 0xbe,
  0x07, 0xdb, 0x9c, 0x3d, 0x62, 0xdf, 0xb9, 0xbe, 0x3d, 0xc8, 0x2c, 0xbe,
  0x27, 0xdf, 0x0b, 0xbd, 0x8b, 0xc1, 0x54, 0xbe, 0x6d, 0xb0, 0x75, 0xbd,
  0x05, 0xf4, 0x66, 0x3e, 0xf3, 0x06, 0x79, 0xbe, 0xe3, 0x31, 0xb8, 0x3d,
  0x2d, 0xe0, 0x97, 0x3d, 0x7d, 0x7e, 0x7a, 0xbe, 0x28, 0x50, 0xd4, 0x3d,
  0x22, 0x27, 0x30, 0xbd, 0x0d, 0x4c, 0xa8, 0xbd, 0x0e, 0x54, 0x39, 0xbd,
  0x08, 0xb9, 0x5a, 0x3e, 0xe1, 0xfb, 0xa6, 0xbd, 0x19, 0x94, 0x39, 0x3e,
  0xdb, 0x2e, 0xd3, 0x39, 0xd0, 0x75, 0x72, 0x3e, 0xa7, 0x95, 0xf0, 0xbb,
  0x9a, 0x94, 0x9a, 0x3c, 0xfe, 0xfb, 0xc0, 0x3d, 0xf5, 0x82, 0xa0, 0x3d,
  0x03, 0x65, 0x9d, 0xbd, 0xb4, 0x21, 0xa7, 0x3e, 0x93, 0x52, 0x06, 0x3e,
  0xc9, 0x7a, 0x08, 0xbd, 0x3f, 0x65, 0xd1, 0x3d, 0x16, 0x91, 0xca, 0x3c,
  0xee, 0xff, 0x67, 0xbd, 0xd4, 0xc7, 0x20, 0x3e, 0x8a, 0xaf, 0xcc, 0x3c,
  0xf8, 0x28, 0x76, 0xbe, 0xf1, 0x47, 0x1c, 0x3e, 0xea, 0x97, 0x29, 0x3b,
  0xdc, 0xfc, 0x15, 0xbe, 0xec, 0x51, 0xc9, 0xbc, 0xbf, 0xde, 0x8a, 0x3d,
  0xc7, 0xb9, 0x65, 0xbe, 0x9d, 0x7a, 0x4e, 0x3e, 0x89, 0x17, 0x05, 0xbe,
  0xfa, 0x29, 0x2d, 0xbe, 0x9f, 0xd6, 0x08, 0x3e, 0x56, 0xee, 0xc3, 0xbd,
  0xda, 0x22, 0x2a, 0xbd, 0x53, 0x27, 0x3a, 0x3e, 0x2b, 0xfe, 0x15, 0xbe,
  0xe6, 0x53, 0x26, 0xbe, 0xf0, 0x13, 0xbe, 0x3d, 0x84, 0x77, 0x64, 0xbd,
  0x2f, 0x34, 0xfc, 0xbd, 0xbc, 0x15, 0x8c, 0x3e, 0xd6, 0x44, 0x6e, 0xbd,
  0x8d, 0x4f, 0x46, 0xbe, 0xb3, 0x95, 0xf0, 0x3d, 0xec, 0x1f, 0x5e, 0xbc,
  0x60, 0x40, 0x36, 0xbe, 0x75, 0xee, 0x17, 0x3e, 0x20, 0xda, 0x21, 0xbc,
  0x52, 0xf3, 0x37, 0xbe, 0xa7, 0xb6, 0x1a, 0x3d, 0xb9, 0xd4, 0xce, 0xbd,
  0xef, 0xf4, 0x80, 0xbe, 0xb8, 0xbb, 0x4f, 0xbc, 0xf2, 0xd5, 0xb9, 0x3d,
  0x56, 0x09, 0x30, 0xbe, 0xa4, 0xff, 0x7d, 0xba, 0xe0, 0xad, 0x8f, 0x3b,
  0xba, 0xef, 0xfc, 0xbd, 0xa7, 0x12, 0x94, 0xbd, 0x2f, 0x69, 0xe4, 0xbd,
  0x45, 0xde, 0x86, 0xbe, 0x5e, 0x2c, 0x8b, 0xbe, 0xc2, 0xd7, 0x0f, 0x3d,
  0x99, 0x44, 0x83, 0x3d, 0x18, 0x7e, 0xea, 0xbc, 0x32, 0xb1, 0x33, 0xbe,
  0x78, 0x8d, 0xa5, 0x3d, 0x35, 0xf6, 0xb3, 0xbe, 0xb1, 0xb0, 0x8b, 0x3d,
  0x92, 0xe2, 0xe1, 0x3d, 0xd5, 0x17, 0x1a, 0xbe, 0x82, 0x26, 0xa4, 0xbd,
  0xc8, 0x6f, 0xb8, 0xbd, 0x89, 0x2d, 0x2c, 0xbe, 0x50, 0xf4, 0x94, 0xbe,
  0xa6, 0xdb, 0x02, 0x3c, 0x62, 0x93, 0x37, 0xbe, 0x2f, 0xe4, 0x2f, 0xbe,
  0xc3, 0xf1, 0x14, 0x3e, 0x02, 0x5f, 0x48, 0xbe, 0xad, 0x38, 0x19, 0xbd,
  0x49, 0x4b, 0xac, 0xbd, 0xd9, 0x8d, 0x92, 0xbe, 0xd5, 0x83, 0x0c, 0xbe,
  0x9e, 0x0f, 0x7c, 0xbd, 0xa7, 0x80, 0xaf, 0xbe, 0xa9, 0xde, 0xe9, 0xbc,
  0x87, 0x6a, 0x30, 0x3d, 0x88, 0xe7, 0xe9, 0x3d, 0x04, 0xe0, 0x70, 0x3c,
  0x14, 0x73, 0x9c, 0x3e, 0x1a, 0x63, 0x15, 0x3e, 0x2c, 0x35, 0xef, 0xbd,
  0x9e, 0xd3, 0x28, 0x3e, 0x48, 0x28, 0x27, 0x3e, 0xcd, 0x45, 0x1b, 0xbe,
  0x74, 0x3c, 0x6b, 0x3e, 0x6a, 0xa9, 0xf6, 0xbc, 0x77, 0x66, 0x93, 0xbe,
  0xc6, 0xc9, 0xa6, 0x3e, 0xe3, 0x00, 0x21, 0x3e, 0x8e, 0xb7, 0x27, 0xbe,
  0x88, 0x77, 0xb1, 0x3e, 0xf9, 0x24, 0x9d, 0x3d, 0x6f, 0xe4, 0xca, 0xbd,
  0xd9, 0x53, 0xde, 0x3d, 0x04, 0x4d, 0xd1, 0x3d, 0x6a, 0xcb, 0x4b, 0xbd,
  0xd6, 0x48, 0x79, 0x3e, 0xfe, 0xb1, 0x03, 0xbd, 0x04, 0xcd, 0xb0, 0xbd,
  0xc0, 0xf0, 0xa0, 0x3e, 0x81, 0xd2, 0x09, 0xbd, 0x4e, 0x1e, 0x9b, 0xbd,
  0x33, 0x8e, 0x83, 0x3d, 0xd1, 0x7a, 0xa7, 0x3c, 0x04, 0x7d, 0x11, 0x3d,
  0x31, 0xda, 0x62, 0xbd, 0x4f, 0x58, 0x3a, 0xbe, 0x4e, 0x5e, 0x8c, 0x3d,
  0xc1, 0xf3, 0x84, 0xbe, 0xed, 0x6c, 0xcc, 0xbd, 0x6a, 0x6b, 0x0e, 0xbe,
  0xb3, 0xa2, 0x56, 0xbd, 0x2d, 0xc7, 0x63, 0xbe, 0x1c, 0x02, 0x70, 0xbe,
  0x4e, 0x6d, 0x4d, 0xbe, 0x19, 0xda, 0x8c, 0xbe, 0xed, 0xb8, 0xb2, 0x3c,
  0xfb, 0xbe, 0x36, 0xbe, 0xbc, 0x8c, 0x82, 0xbd, 0xdc, 0x2b, 0xed, 0xbc,
  0x23, 0x06, 0x31, 0xbe, 0xfe, 0xa8, 0x05, 0xbe, 0x4c, 0x96, 0x48, 0xbe,
  0x7f, 0xa8, 0x95, 0xbe, 0x3c, 0x79, 0x3a, 0xbe, 0x51, 0x6a, 0xd9, 0x3d,
  0x9e, 0x1a, 0xfe, 0xbd, 0xbf, 0x51, 0xb3, 0xbd, 0x06, 0x82, 0x44, 0x3d,
  0x54, 0xbe, 0x8e, 0xbe, 0xe3, 0x79, 0x19, 0x3d, 0xff, 0x28, 0x26, 0xbe,
  0x2a, 0xf5, 0x62, 0xbe, 0xe0, 0x57, 0x07, 0x3c, 0x58, 0x25, 0xa1, 0xbc,
  0x17, 0xe2, 0xc2, 0xbe, 0x99, 0xf6, 0x16, 0xbe, 0x9c, 0x0f, 0x45, 0xbe,
  0x4d, 0x55, 0x1d, 0xbe, 0x3e, 0x52, 0xd3, 0xbd, 0x81, 0x41, 0xe5, 0xbd,
  0xe2, 0x4e, 0xa7, 0xbd, 0xa8, 0xf8, 0x11, 0xbe, 0x01, 0x18, 0x71, 0xbd,
  0xd1, 0xba, 0x35, 0xbe, 0x40, 0x6f, 0x28, 0xbe, 0x69, 0xdf, 0xa1, 0x3d,
  0x51, 0xb0, 0x92, 0xbe, 0x60, 0x12, 0xb3, 0xbe, 0xa3, 0xc1, 0x24, 0x3e,
  0xeb, 0x04, 0xcf, 0xbd, 0xbd, 0xb2, 0x56, 0xbe, 0xfc, 0xd8, 0xd5, 0x3d,
  0xfa, 0x28, 0xdd, 0xbd, 0xfd, 0xe3, 0x89, 0xbe, 0x67, 0xb4, 0x02, 0x3e,
  0x3e, 0x63, 0x13, 0xbd, 0xe5, 0x27, 0x30, 0x3e, 0x38, 0x3d, 0x07, 0xbd,
  0x3d, 0x11, 0x58, 0xbd, 0xa0, 0x35, 0x53, 0x3e, 0xa9, 0xf2, 0x11, 0x3e,
  0x3c, 0x56, 0x97, 0x3d, 0xb4, 0x6a, 0x89, 0x3e, 0x13, 0x3e, 0xf1, 0xbd,
  0x37, 0xb5, 0x38, 0x3e, 0x22, 0xff, 0x60, 0x3e, 0x2b, 0x9e, 0x63, 0xbd,
  0x21, 0x92, 0xfa, 0x3d, 0x9f, 0x29, 0x6b, 0x3e, 0x99, 0x20, 0xd0, 0xbd,
  0x09, 0x8c, 0x2e, 0x3d, 0xb9, 0x24, 0xf9, 0x3c, 0x98, 0x06, 0x31, 0xbd,
  0x52, 0xc9, 0x10, 0x3e, 0xae, 0x33, 0x9e, 0x3c, 0x87, 0xe0, 0x16, 0x3e,
  0x99, 0x5a, 0x34, 0x3e, 0x71, 0x40, 0x5c, 0x3e, 0x51, 0x91, 0x46, 0xbd,
  0x32, 0x2f, 0x96, 0x3d, 0xf4, 0x27, 0x9a, 0xbd, 0x4b, 0xaa, 0x1c, 0x3d,
  0xe5, 0x3a, 0xc3, 0x3d, 0x6b, 0x6a, 0x40, 0xbe, 0x39, 0xfc, 0x6b, 0xbe,
  0xee, 0xbd, 0x93, 0xbd, 0x06, 0x3e, 0x5e, 0xbd, 0x2d, 0xb1, 0xca, 0xbd,
  0xa2, 0x67, 0x15, 0xbd, 0xcb, 0x6c, 0x33, 0xbd, 0xaa, 0x13, 0x3c, 0xbe,
  0xf0, 0x48, 0x6c, 0xbc, 0x21, 0x6b, 0x91, 0xbe, 0xc5, 0x8e, 0xba, 0x3d,
  0xff, 0x85, 0xd3, 0xbc, 0x6c, 0x39, 0xc8, 0x3b, 0xa6, 0x43, 0x25, 0xbe,
  0x27, 0xd0, 0xf6, 0xbc, 0x77, 0x16, 0x51, 0xbe, 0x1c, 0xbf, 0x78, 0xbd,
  0x6f, 0x08, 0x0d, 0xbe, 0xf9, 0xc4, 0xb4, 0xbe, 0x71, 0xbd, 0x04, 0x3e,
  0xc8, 0xd2, 0xc3, 0xbc, 0x64, 0x2b, 0x0a, 0xbe, 0xef, 0x19, 0x0f, 0x3e,
  0x0e, 0x6c, 0x6e, 0xbe, 0x5e, 0xc5, 0x13, 0xbe, 0x58, 0x52, 0x55, 0x3e,
  0x6e, 0x9b, 0x84, 0xbc, 0x6a, 0x33, 0xe3, 0xbe, 0xba, 0x67, 0x85, 0xbc,
  0xce, 0x52, 0x97, 0xbe, 0xe6, 0x38, 0xaf, 0xbe, 0x28, 0x39, 0x89, 0x3d,
  0x93, 0x6a, 0xed, 0xbe, 0x91, 0x2a, 0xde, 0xbe, 0xf1, 0xfe, 0x8d, 0xbc,
  0x1d, 0x50, 0x51, 0xbe, 0x73, 0xcb, 0xf4, 0xbe, 0x99, 0x4e, 0xeb, 0xbd,
  0x4b, 0x2b, 0x6e, 0xbe, 0x3b, 0x77, 0xba, 0xbe, 0x8c, 0xfb, 0x35, 0x3e,
  0xa4, 0xed, 0xfa, 0xbe, 0x07, 0xb4, 0xc2, 0xbe, 0x20, 0x9a, 0x9c, 0xbc,
  0x41, 0x5d, 0x7e, 0xbe, 0x7e, 0xd9, 0xda, 0xbe, 0xdf, 0xd0, 0x24, 0x3e,
  0x32, 0x3c, 0x09, 0xbf, 0xb8, 0x47, 0xd6, 0xbe, 0xc6, 0x71, 0x13, 0x3e,
  0x70, 0x9e, 0x79, 0xbe, 0xa4, 0x4f, 0xbd, 0xbe, 0xdd, 0x4c, 0x91, 0x3c,
  0x1d, 0x6d, 0xea, 0xbe, 0x60, 0xed, 0x7c, 0xbe, 0x5e, 0xd9, 0x0b, 0x3e,
  0xe0, 0xdb, 0x56, 0xbe, 0x23, 0x6a, 0x79, 0x3d, 0xa9, 0xc7, 0x10, 0x3e,
  0x20, 0x6e, 0xd7, 0x3c, 0xd7, 0xf8, 0x71, 0xbd, 0x21, 0xc7, 0x94, 0x3c,
  0xfc, 0x63, 0x38, 0xbd, 0xe7, 0xf4, 0xdf, 0xbd, 0x48, 0x25, 0x93, 0x3e,
  0x98, 0x90, 0x16, 0xbe, 0x1a, 0xeb, 0x61, 0xbd, 0x20, 0x0b, 0x26, 0x3d,
  0xa8, 0x57, 0x4b, 0xbb, 0x2c, 0xb6, 0xd6, 0xbd, 0x5d, 0x0b, 0x35, 0x3d,
  0xb0, 0xa6, 0x0a, 0xbe, 0xbc, 0x75, 0xb4, 0x3d, 0x45, 0x48, 0x04, 0x3e,
  0x07, 0xa5, 0xeb, 0x3d, 0x16, 0x41, 0x31, 0xbe, 0xb6, 0x9d, 0x34, 0x3e,
  0xe8, 0xc9, 0x4d, 0xbe, 0x31, 0xb0, 0x7d, 0xbd, 0x85, 0x4b, 0xd3, 0x3d,
  0x95, 0x46, 0x21, 0xbe, 0xd5, 0x5b, 0x01, 0x3e, 0xc0, 0xb3, 0xa9, 0xbc,
  0x98, 0xf3, 0xbf, 0x3e, 0xd3, 0xd8, 0x6d, 0x3e, 0x6d, 0x2e, 0x18, 0xbe,
  0x01, 0xe2, 0x66, 0x3e, 0xd4, 0x4b, 0x65, 0xbd, 0x94, 0x6c, 0x89, 0x3d,
  0x90, 0xfe, 0xc7, 0x3e, 0x87, 0xe9, 0x17, 0x3d, 0x5c, 0x22, 0x3a, 0xbe,
  0x19, 0x49, 0x9e, 0x3e, 0xc8, 0xaf, 0xb4, 0xbd, 0x5b, 0x49, 0xb8, 0x3b,
  0x4c, 0x0f, 0xed, 0x3e, 0x6f, 0xb9, 0x30, 0xbd, 0x51, 0x24, 0xe5, 0xbd,
  0xac, 0xd3, 0x19, 0x3e, 0xb1, 0xd5, 0x52, 0xbe, 0xf2, 0xbd, 0xef, 0x3d,
  0xd1, 0xac, 0x43, 0x3e, 0xc7, 0xd8, 0x65, 0xbc, 0xa0, 0x85, 0xce, 0xbc,
  0x0c, 0x05, 0xa8, 0x3e, 0x19, 0x25, 0x45, 0xbe, 0x80, 0xd2, 0x38, 0xbe,
  0xf7, 0xda, 0xa6, 0x3e, 0x65, 0x86, 0x23, 0x3e, 0x03, 0x30, 0x1a, 0x3d,
  0xc7, 0x36, 0x41, 0xbe, 0x1d, 0x0d, 0x7c, 0x3d, 0xfc, 0x6d, 0x29, 0xbe,
  0x44, 0xe0, 0x59, 0xbe, 0xf0, 0x83, 0x1e, 0x3e, 0xf0, 0x48, 0x6b, 0xbc,
  0xf0, 0xf6, 0x7e, 0xbe, 0xd9, 0x76, 0xd3, 0x3d, 0x5f, 0x3b, 0x61, 0xbc,
  0x52, 0x4d, 0x05, 0xbd, 0x3c, 0x0f, 0xce, 0x3d, 0x5e, 0xd1, 0x10, 0xbe,
  0xa9, 0xd4, 0x4c, 0xbe, 0x7d, 0x1b, 0x2c, 0x3d, 0x1e, 0x86, 0xc1, 0xbd,
  0x47, 0xbb, 0x90, 0xbe, 0x59, 0xee, 0x82, 0x3d, 0xf0, 0x53, 0xd4, 0xbd,
  0x46, 0x45, 0xac, 0xbe, 0x5a, 0x48, 0x2f, 0x3d, 0xa3, 0xed, 0x20, 0xbe,
  0xc1, 0xc5, 0x95, 0xbe, 0xcc, 0xdf, 0x46, 0xbb, 0x44, 0x7b, 0x6b, 0xbd,
  0xe8, 0xe6, 0x3a, 0xbe, 0xcb, 0x71, 0x39, 0x3e, 0x3d, 0xcf, 0xab, 0xbc,
  0x6f, 0x9b, 0xe4, 0xbd, 0x6e, 0xc7, 0x0e, 0x3e, 0xd8, 0x67, 0xc2, 0x3d,
  0xe9, 0xca, 0x8b, 0xbe, 0x3e, 0x69, 0x60, 0x3e, 0xff, 0xc6, 0x14, 0x3d,
  0x3f, 0x60, 0x81, 0xbe, 0x2c, 0xe3, 0x31, 0x3c, 0x5e, 0x73, 0xb8, 0xbd,
  0x92, 0x5d, 0x2c, 0xbe, 0xe1, 0xdc, 0x8d, 0x3e, 0x2b, 0x3a, 0x26, 0x3d,
  0x9b, 0x20, 0xac, 0xbe, 0xa2, 0xc6, 0xc3, 0xbd, 0x3f, 0x3e, 0x1d, 0xbe,
  0x40, 0x89, 0x89, 0xbe, 0x7e, 0x89, 0x19, 0x3e, 0x77, 0xf6, 0x4a, 0x3d,
  0xce, 0x3a, 0x11, 0xbd, 0x17, 0x74, 0xb1, 0xbd, 0x4b, 0x9f, 0x71, 0xbd,
  0x2d, 0x25, 0x3c, 0xbe, 0x82, 0xbe, 0x7e, 0xbd, 0x6d, 0x3e, 0x0a, 0x3d,
  0x05, 0x30, 0x67, 0xbe, 0x5e, 0xc7, 0xff, 0xff, 0x04, 0x00, 0x00, 0x00,
  0x00, 0x38, 0x00, 0x00, 0x4e, 0xf5, 0xc4, 0x3c, 0xaa, 0x68, 0x88, 0x3e,
  0xbd, 0x3d, 0x6c, 0x3e, 0x4d, 0x88, 0x0c, 0x3e, 0x6d, 0xf9, 0x11, 0x3e,
  0x33, 0x27, 0x3c, 0x3e, 0xdb, 0x9f, 0x39, 0x3e, 0x9b, 0x00, 0x48, 0x3e,
  0x64, 0x48, 0xc8, 0x3d, 0x83, 0xa1, 0xe3, 0x3c, 0x6b, 0x55, 0x26, 0x3e,
  0x77, 0xf9, 0x23, 0xbd, 0x90, 0xe0, 0x67, 0xbd, 0x24, 0xec, 0xca, 0x3d,
  0xfe, 0x7b, 0x3c, 0x3e, 0xcc, 0xf5, 0x97, 0x3d, 0xf9, 0xf6, 0x71, 0x3c,
  0x52, 0xcd, 0x82, 0x3e, 0x23, 0x82, 0x84, 0x3e, 0xc4, 0x8e, 0x82, 0x3e,
  0xc7, 0xa0, 0x59, 0x3a, 0x7c, 0xab, 0x5f, 0x3e, 0xa6, 0x34, 0x15, 0x3e,
  0xa8, 0x6f, 0x45, 0x3e, 0x9b, 0x13, 0x90, 0x3d, 0xab, 0x93, 0x86, 0xbc,
  0x31, 0xda, 0x48, 0x3e, 0x74, 0x11, 0x53, 0xbd, 0x64, 0x58, 0x68, 0xbc,
  0x56, 0x21, 0xd0, 0x3d, 0x5d, 0x9f, 0xad, 0x3d, 0x80, 0x2a, 0x2a, 0x3d,
  0x40, 0x61, 0xd5, 0x3c, 0xfa, 0xec, 0x5d, 0x3e, 0xd8, 0xa1, 0x07, 0x3e,
  0xc5, 0xd5, 0x12, 0x3d, 0x5b, 0xb8, 0x6a, 0x3e, 0xb0, 0xe1, 0x12, 0x3e,
  0x9d, 0xca, 0x19, 0x3e, 0x9f, 0x1c, 0x85, 0x3e, 0x68, 0x63, 0xf2, 0x3d,
  0x46, 0xaa, 0x59, 0x3d, 0x6f, 0xf5, 0x8e, 0x3e, 0x51, 0x68, 0xbf, 0x3b,
  0x67, 0xd5, 0x02, 0xbe, 0xae, 0xff, 0x0a, 0x3c, 0x64, 0x3d, 0x13, 0x3e,
  0xa2, 0x6f, 0x3d, 0x3e, 0x55, 0x5a, 0x1b, 0x3e, 0x07, 0xb9, 0x7d, 0x3e,
  0x14, 0x1b, 0x5a, 0x3e, 0x09, 0x52, 0x54, 0x3e, 0x82, 0xf3, 0x3f, 0x3d,
  0x1f, 0x4c, 0x53, 0x3e, 0x6b, 0x53, 0xa8, 0x3d, 0xe9, 0x12, 0x03, 0x3e,
  0x81, 0x61, 0xae, 0x3d, 0xba, 0x2c, 0x12, 0x3d, 0x71, 0xd3, 0x93, 0x3d,
  0x7a, 0x2f, 0x26, 0x3d, 0x32, 0x58, 0xd8, 0xbc, 0xa3, 0xed, 0xf1, 0x3d,
  0xc3, 0x61, 0xa1, 0x3e, 0xd1, 0x9d, 0x74, 0x3e, 0x5c, 0xac, 0x15, 0xbd,
  0x62, 0x4a, 0x33, 0x3e, 0x45, 0x91, 0x62, 0x3e, 0x18, 0x79, 0x3f, 0xbc,
  0x9a, 0x94, 0xf8, 0x3d, 0xfa, 0x6b, 0xe7, 0x3d, 0x49, 0x94, 0x8d, 0x3e,
  0xe7, 0xf6, 0xe3, 0x3d, 0x5f, 0x33, 0x76, 0x3e, 0xd4, 0x5c, 0x02, 0xbd,
  0x2c, 0xea, 0x76, 0x3e, 0x4e, 0x4a, 0x4d, 0xbd, 0x79, 0xef, 0x77, 0xbd,
  0xd0, 0xe2, 0xea, 0x3c, 0xfa, 0xe5, 0x3e, 0x3e, 0x47, 0x89, 0x84, 0x3c,
  0x06, 0x5d, 0xcf, 0x3d, 0x59, 0xa1, 0xcc, 0x3d, 0xdf, 0x5c, 0x16, 0x3e,
  0x0d, 0xe0, 0x90, 0x3d, 0xb0, 0x54, 0xf7, 0x3d, 0x01, 0xdb, 0x86, 0x3d,
  0xdf, 0xb8, 0x61, 0x3c, 0x5f, 0xab, 0xdb, 0x3d, 0x64, 0x03, 0xda, 0x3d,
  0x6f, 0x7a, 0x81, 0xbd, 0xcb, 0x25, 0x51, 0x3e, 0x8b, 0x08, 0xd7, 0x3d,
  0xef, 0xc2, 0x5c, 0xbe, 0x34, 0x54, 0x39, 0x3b, 0xf5, 0x35, 0x51, 0x3e,
  0x6e, 0xee, 0xf4, 0x3d, 0x45, 0xb7, 0x9e, 0xbc, 0xfb, 0x3f, 0x9e, 0x3d,
  0xa5, 0xfa, 0x8c, 0x3e, 0xe9, 0x52, 0x80, 0xbd, 0xfc, 0xf7, 0xb3, 0x3d,
  0x80, 0xb6, 0x49, 0x3e, 0x48, 0xba, 0x49, 0x3e, 0xc7, 0x77, 0xa1, 0x3d,
  0x1a, 0xa3, 0x5e, 0x3e, 0x28, 0xbb, 0xa4, 0xbc, 0xb0, 0x4b, 0xa9, 0x3d,
  0xfd, 0x76, 0x57, 0x3e, 0x54, 0x64, 0x09, 0xbe, 0x54, 0x77, 0xb0, 0x3d,
  0xf3, 0xec, 0x0a, 0x3e, 0x14, 0x07, 0xc0, 0x3d, 0x92, 0x32, 0x95, 0x3e,
  0xd2, 0xcc, 0x7f, 0xbe, 0x94, 0x86, 0x9e, 0xbe, 0xb8, 0x3f, 0x86, 0xbe,
  0x90, 0x16, 0x9c, 0xbd, 0x7b, 0x06, 0x78, 0xbe, 0x90, 0xce, 0xab, 0xbd,
  0xff, 0x34, 0x85, 0xbe, 0x7e, 0xee, 0xac, 0xbe, 0x1e, 0xcc, 0xa2, 0x3d,
  0x99, 0x25, 0xba, 0xbe, 0x2a, 0xbe, 0xcb, 0x3d, 0x86, 0x4f, 0x9c, 0x3d,
  0x8e, 0xda, 0x96, 0x3e, 0xd2, 0x50, 0xa4, 0xbe, 0x65, 0xab, 0x20, 0xbe,
  0x1a, 0x2a, 0x63, 0x3e, 0x54, 0xf8, 0x6b, 0xbe, 0x13, 0xa6, 0x9f, 0xbe,
  0xb6, 0x7b, 0x16, 0xbe, 0x1e, 0x9d, 0x80, 0xbe, 0xc9, 0x64, 0xd5, 0xbd,
  0xcc, 0x38, 0x9f, 0xbe, 0x01, 0x93, 0x58, 0xbe, 0xbc, 0xb3, 0xb2, 0xbe,
  0xfa, 0xb9, 0xbd, 0x3c, 0xa5, 0x33, 0x6e, 0xbe, 0xe9, 0x0c, 0xa4, 0x3e,
  0xfd, 0x6f, 0xd3, 0xbd, 0x74, 0x05, 0x90, 0x3e, 0x87, 0xb8, 0x86, 0xbd,
  0x4d, 0xb1, 0x43, 0xbe, 0x0b, 0x38, 0x12, 0x3e, 0x93, 0x3e, 0x99, 0xbe,
  0xac, 0x1e, 0x26, 0xbe, 0xe0, 0x88, 0x76, 0xbe, 0xc7, 0xe0, 0x11, 0xbe,
  0xd4, 0x1a, 0x83, 0xbd, 0x6d, 0xf4, 0x64, 0xbe, 0xfb, 0xc1, 0x8d, 0xbe,
  0x8d, 0x83, 0x8a, 0xbe, 0x12, 0xcf, 0x0e, 0xbd, 0x67, 0xa7, 0x54, 0xbe,
  0x59, 0xdd, 0x9e, 0x3e, 0x4b, 0xf7, 0xe1, 0xbc, 0x03, 0x51, 0xa8, 0x3e,
  0xf9, 0x37, 0x4e, 0xbe, 0x60, 0xc9, 0x75, 0xbe, 0xfd, 0xf6, 0x81, 0x3e,
  0x8f, 0xec, 0x37, 0xbe, 0xd7, 0xef, 0xc2, 0xbd, 0xee, 0x25, 0x31, 0xbe,
  0xae, 0xc1, 0xe5, 0xbd, 0xdd, 0x20, 0x00, 0xbd, 0xf7, 0x71, 0x80, 0xbe,
  0xd9, 0x30, 0x5a, 0xbe, 0x99, 0x5d, 0x2b, 0xbe, 0xf4, 0xfd, 0x62, 0x3d,
  0x84, 0x2a, 0x87, 0xbe, 0x97, 0x48, 0x8b, 0x3e, 0x7e, 0x7b, 0xc7, 0x3c,
  0x25, 0x07, 0x94, 0x3e, 0x55, 0x86, 0x7e, 0xbd, 0x81, 0xc0, 0x4c, 0xbe,
  0xef, 0xf7, 0x9e, 0x3e, 0xb2, 0x07, 0x8f, 0xbe, 0xe4, 0x88, 0x47, 0xbe,
  0xf2, 0xa3, 0xf1, 0xbd, 0x3d, 0x97, 0xc6, 0xbd, 0x16, 0xce, 0x72, 0xbe,
  0x89, 0xa7, 0x29, 0xbe, 0xd5, 0xd8, 0x04, 0xbe, 0x55, 0x64, 0x60, 0xbe,
  0x60, 0xd4, 0xc6, 0xbd, 0x0f, 0x1a, 0x19, 0xbe, 0x6f, 0x2a, 0x88, 0x3e,
  0x27, 0x4c, 0x88, 0xbd, 0xd3, 0x56, 0x86, 0x3e, 0x18, 0x9a, 0x55, 0xbe,
  0x51, 0xdf, 0x98, 0xbe, 0x30, 0x42, 0x27, 0x3e, 0x2a, 0x3d, 0xa6, 0xbe,
  0x19, 0x99, 0x4f, 0xbe, 0xf0, 0x52, 0x22, 0xbe, 0x01, 0x67, 0x07, 0xbe,
  0x24, 0xf0, 0xd0, 0xbd, 0xd7, 0x26, 0x9a, 0xbe, 0x41, 0x20, 0x33, 0xbe,
  0x14, 0xe8, 0xb7, 0xbe, 0xa6, 0x71, 0xb2, 0xbc, 0x6c, 0x11, 0xbb, 0xbe,
  0xf0, 0x91, 0x36, 0x3e, 0x7a, 0x38, 0x6b, 0x3d, 0x8f, 0x4e, 0x8c, 0x3e,
  0x37, 0x00, 0x69, 0xbe, 0x9b, 0x94, 0x64, 0xbe, 0xe3, 0xb0, 0x6d, 0x3d,
  0x33, 0x2e, 0x74, 0xbe, 0x59, 0x07, 0xe3, 0xbd, 0x21, 0x8b, 0x80, 0xbe,
  0x9f, 0x60, 0x2c, 0xbe, 0xd2, 0xea, 0x4b, 0xbe, 0x0a, 0xde, 0x00, 0xbe,
  0x12, 0x24, 0x58, 0xbe, 0x62, 0xdd, 0x48, 0xbe, 0x44, 0x56, 0x22, 0x3d,
  0xd4, 0x6a, 0xbc, 0xbe, 0x6f, 0x9c, 0x89, 0x3e, 0x93, 0xab, 0xc1, 0xbc,
  0xfb, 0x73, 0xbc, 0x3e, 0x23, 0x33, 0x26, 0xbe, 0xbf, 0xdb, 0x6a, 0xbe,
  0x0f, 0x79, 0xdc, 0x3d, 0x6d, 0xf9, 0x49, 0x3e, 0x86, 0xf7, 0x83, 0x3e,
  0x8a, 0x37, 0x3c, 0x3d, 0x29, 0x74, 0x35, 0x3e, 0xf9, 0xaa, 0x99, 0x3d,
  0xc2, 0x6e, 0xc1, 0x3d, 0xb9, 0x64, 0x40, 0x3e, 0xca, 0xbc, 0x40, 0x3d,
  0xaf, 0xf8, 0x9f, 0x3d, 0xfa, 0xb1, 0xd3, 0x3d, 0xba, 0x46, 0xbd, 0xbd,
  0xde, 0xad, 0xb4, 0xbd, 0xba, 0x38, 0x92, 0x3c, 0x80, 0xdd, 0xad, 0x3d,
  0x64, 0x4b, 0x57, 0x3e, 0x48, 0xb9, 0x20, 0x3d, 0xb1, 0x5c, 0xd2, 0x3e,
  0x2d, 0x76, 0x83, 0x3e, 0x35, 0x2b, 0x7a, 0x3e, 0xe8, 0xce, 0x34, 0x3e,
  0x25, 0x8d, 0xad, 0x3d, 0xca, 0x1d, 0x3e, 0x3e, 0xa2, 0xbe, 0x6f, 0x3e,
  0x90, 0x7c, 0x23, 0x3e, 0x58, 0x90, 0xbf, 0x3d, 0xf1, 0x50, 0x19, 0x3e,
  0x3b, 0x7c, 0xdc, 0xbd, 0x8b, 0x2d, 0x62, 0xbe, 0x82, 0x6f, 0x06, 0x3e,
  0x25, 0x1c, 0x6f, 0x3e, 0xd6, 0xbc, 0x37, 0x3e, 0xac, 0xa9, 0xd7, 0x3c,
  0x8f, 0x58, 0x94, 0x3e, 0xe6, 0xc7, 0x88, 0x3e, 0x84, 0x2e, 0x40, 0x3e,
  0xea, 0x3c, 0x8a, 0x3c, 0x3a, 0x89, 0x43, 0x3e, 0xe7, 0x9e, 0x06, 0x3e,
  0x3f, 0x67, 0x61, 0x3d, 0x68, 0xb6, 0x93, 0x3d, 0x26, 0x86, 0x9e, 0x3d,
  0x88, 0x0a, 0x02, 0x3e, 0x7e, 0x6b, 0xcd, 0x3d, 0x1a, 0x7d, 0x89, 0xbe,
  0x2a, 0x47, 0x60, 0x3d, 0x64, 0x89, 0x8d, 0x3e, 0x2b, 0xfc, 0xd0, 0x3d,
  0xa8, 0x31, 0x8f, 0x3d, 0xb9, 0xa5, 0x7e, 0x3e, 0xb2, 0x86, 0x86, 0x3e,
  0x6d, 0xb1, 0xe8, 0x3d, 0x0e, 0x02, 0x38, 0x3e, 0x74, 0x47, 0x88, 0x3d,
  0x47, 0x59, 0x69, 0x3d, 0xf1, 0x3e, 0x99, 0x3d, 0xde, 0xe0, 0x24, 0x3e,
  0x81, 0xe4, 0x1e, 0x3d, 0xa1, 0xce, 0xcd, 0x3d, 0x17, 0x13, 0xec, 0x3d,
  0xe3, 0xa8, 0x30, 0xbe, 0xfa, 0x77, 0x25, 0x3b, 0x36, 0x76, 0x18, 0x3e,
  0x60, 0x79, 0x5a, 0x3e, 0xa4, 0x5b, 0xe4, 0x3c, 0x87, 0xb7, 0x97, 0x3e,
  0x15, 0xef, 0x78, 0x3e, 0x7b, 0xb5, 0x17, 0x3e, 0x61, 0x5b, 0x9d, 0x3d,
  0x34, 0x0c, 0x54, 0x3e, 0x86, 0x82, 0x78, 0x3e, 0x35, 0x39, 0xbf, 0x3d,
  0x2b, 0x53, 0x21, 0x3e, 0xd2, 0xf2, 0x01, 0xbe, 0x09, 0x7d, 0x16, 0x3e,
  0x0e, 0xca, 0x05, 0xbd, 0x7e, 0x09, 0x5b, 0xbe, 0x1d, 0x84, 0xe8, 0x3d,
  0x95, 0xa7, 0x4a, 0x3e, 0xc4, 0x6b, 0x6c, 0x3d, 0xf2, 0x6c, 0xab, 0xbd,
  0xa0, 0x01, 0xaa, 0x3e, 0x17, 0xd3, 0x53, 0x3e, 0x92, 0xd3, 0x9f, 0x3d,
  0xff, 0x7f, 0x0c, 0x3e, 0x42, 0xcd, 0xb6, 0x3d, 0x39, 0x54, 0xd1, 0x3d,
  0xf1, 0xd1, 0x12, 0x3e, 0xdd, 0x8b, 0x5f, 0x3e, 0x70, 0x74, 0x67, 0x3d,
  0xc2, 0x4d, 0xad, 0x3e, 0xe2, 0x5a, 0x5f, 0x3d, 0x4c, 0xe3, 0x4f, 0xbe,
  0x3f, 0x7c, 0xfd, 0x3d, 0x15, 0x70, 0x1e, 0x3e, 0xcc, 0x9b, 0x28, 0x3d,
  0x00, 0x10, 0x91, 0xbd, 0x56, 0x0c, 0x9b, 0x3e, 0x50, 0x17, 0xac, 0x3e,
  0x2e, 0x4c, 0x52, 0xbd, 0xaa, 0x70, 0x1e, 0x3e, 0xc7, 0xcb, 0x50, 0x3e,
  0x0c, 0x9a, 0x13, 0x3e, 0xf5, 0x40, 0xd7, 0x3d, 0xeb, 0x98, 0x28, 0x3e,
  0x1c, 0x06, 0x21, 0xbe, 0xb6, 0xed, 0x98, 0x3d, 0x30, 0xa3, 0x5b, 0x3e,
  0xbb, 0xa8, 0x3b, 0xbc, 0xc6, 0x64, 0xf5, 0x3d, 0x29, 0xf9, 0x3a, 0x3e,
  0x5a, 0x98, 0x3c, 0x3e, 0x0d, 0x8c, 0x04, 0x3e, 0x4b, 0xf9, 0x07, 0xbe,
  0x1c, 0xfa, 0x7e, 0xbe, 0xee, 0x28, 0xb4, 0xbd, 0x0c, 0x84, 0x25, 0xbe,
  0xe9, 0xaf, 0x30, 0xbe, 0xe6, 0xd2, 0x09, 0xbe, 0x15, 0xa3, 0xd2, 0xbd,
  0x4a, 0x5b, 0x55, 0xbe, 0xf1, 0xce, 0x2d, 0x3d, 0x2e, 0x4c, 0x99, 0xbe,
  0x46, 0x6a, 0x80, 0x3e, 0x5c, 0x95, 0x1c, 0x3d, 0x1a, 0x01, 0x91, 0x3d,
  0x93, 0x18, 0x6a, 0xbe, 0x4c, 0xc1, 0x29, 0xbd, 0x01, 0x43, 0xce, 0x3d,
  0x4f, 0xb4, 0x4f, 0xbe, 0x0f, 0x67, 0x6e, 0xbe, 0x0f, 0xa9, 0x25, 0xbe,
  0x35, 0xcd, 0x5c, 0xbd, 0xb8, 0xe2, 0xff, 0xbd, 0x57, 0x0d, 0x54, 0xbe,
  0x5c, 0x1f, 0x73, 0xbe, 0x73, 0xac, 0x63, 0xbe, 0xb2, 0x38, 0x13, 0x3d,
  0x99, 0xd6, 0x21, 0xbe, 0xfd, 0xd1, 0x77, 0x3e, 0xbb, 0x37, 0x6c, 0xbd,
  0x71, 0x88, 0x63, 0x3e, 0xd1, 0xe5, 0x35, 0xbe, 0xd3, 0x70, 0x61, 0xbe,
  0x3d, 0xe2, 0x87, 0x3e, 0xe7, 0xf2, 0x96, 0xbe, 0x39, 0x5c, 0x86, 0xbe,
  0xd9, 0x89, 0x5e, 0xbe, 0x0f, 0xa5, 0x5d, 0xbe, 0x9b, 0x5a, 0x30, 0xbe,
  0x7c, 0xdc, 0xb3, 0xbe, 0x6c, 0xe1, 0x0f, 0xbe, 0x23, 0xad, 0x93, 0xbe,
  0x64, 0xb3, 0x35, 0x3d, 0xc4, 0x02, 0x53, 0xbe, 0x7b, 0xae, 0x58, 0x3e,
  0x30, 0xd7, 0xa1, 0xbd, 0x95, 0x3c, 0x9a, 0x3e, 0xb0, 0x84, 0x5b, 0xbe,
  0xee, 0xa0, 0x5f, 0xbe, 0x1b, 0xc3, 0x5f, 0x3e, 0xee, 0x1b, 0x78, 0xbe,
  0x43, 0x8a, 0x87, 0xbe, 0xac, 0x5c, 0x56, 0xbe, 0xc5, 0xe1, 0xdd, 0xbd,
  0xd9, 0xe4, 0x4b, 0xbe, 0x1c, 0x65, 0x8d, 0xbe, 0x46, 0x22, 0x35, 0xbe,
  0xf1, 0x69, 0x1c, 0xbe, 0x46, 0x0e, 0x94, 0x3d, 0x7e, 0x41, 0x28, 0xbe,
  0xa6, 0x45, 0x24, 0x3e, 0xe4, 0xda, 0x03, 0xbe, 0x5e, 0xde, 0xb5, 0x3e,
  0x39, 0x22, 0x0b, 0xbe, 0x18, 0x2c, 0x86, 0xbe, 0xb3, 0x97, 0x5b, 0x3e,
  0xa3, 0xcb, 0x06, 0xbe, 0x51, 0x71, 0x06, 0xbe, 0xd8, 0xbd, 0x13, 0xbe,
  0x00, 0x5a, 0xe0, 0xbd, 0xb6, 0x9a, 0x62, 0xbe, 0x11, 0x74, 0x90, 0xbe,
  0x2d, 0x6d, 0x2d, 0xbe, 0x3b, 0x03, 0x55, 0xbe, 0x47, 0x7b, 0x14, 0x3e,
  0xab, 0x8d, 0x25, 0xbe, 0x88, 0x1f, 0x8b, 0x3e, 0x78, 0x74, 0xf7, 0x3d,
  0xad, 0xb9, 0x66, 0x3e, 0xb1, 0x51, 0x22, 0xbe, 0xd7, 0x72, 0x88, 0xbe,
  0xb5, 0x48, 0x9a, 0x3d, 0xd1, 0xc0, 0x4b, 0xbe, 0x22, 0x91, 0xa0, 0xbe,
  0x5a, 0xf8, 0x8a, 0xbe, 0xa1, 0xfd, 0x8b, 0xbe, 0x73, 0xb4, 0xdf, 0xbd,
  0x6c, 0x26, 0x49, 0xbe, 0xaf, 0xc5, 0x10, 0xbe, 0xa9, 0x7e, 0x4e, 0xbe,
  0xef, 0xff, 0xa4, 0xbd, 0xbe, 0x62, 0xf4, 0xbd, 0x4b, 0xc8, 0x4c, 0x3e,
  0x7b, 0x2a, 0x78, 0x3c, 0xa5, 0xd8, 0x97, 0x3e, 0x95, 0xc0, 0xe8, 0xbd,
  0x43, 0x00, 0x88, 0xbe, 0xd8, 0x73, 0x14, 0x3e, 0x3d, 0x2e, 0xf2, 0xbd,
  0xe8, 0x20, 0x5e, 0xbe, 0x2c, 0x36, 0x0a, 0xbe, 0x62, 0x34, 0x31, 0xbd,
  0x35, 0x75, 0xe6, 0xbd, 0x7c, 0x0e, 0x80, 0xbe, 0x7d, 0xff, 0xa3, 0xbd,
  0x6c, 0x4b, 0x7d, 0xbe, 0x98, 0xa1, 0xb2, 0xbd, 0xbb, 0xd2, 0x69, 0xbe,
  0x77, 0xaa, 0x07, 0x3e, 0x03, 0xee, 0xdc, 0xbc, 0x3f, 0x81, 0x4c, 0x3e,
  0x53, 0x0b, 0x5b, 0xbe, 0x15, 0xa7, 0xcd, 0xbd, 0xf6, 0xc5, 0x65, 0x3a,
  0x19, 0xb1, 0x3f, 0x3e, 0x52, 0xe8, 0xe2, 0x3d, 0xd3, 0x8f, 0x22, 0x3e,
  0xaa, 0xfd, 0x43, 0x3e, 0x6d, 0x80, 0x6f, 0x3e, 0xf4, 0x95, 0xbe, 0x3d,
  0x18, 0xdd, 0x45, 0x3c, 0x69, 0xf4, 0x45, 0x3e, 0x03, 0x37, 0x12, 0xbd,
  0x19, 0xd2, 0x40, 0xbd, 0x0a, 0x4d, 0x8a, 0x3d, 0x67, 0xc1, 0x1c, 0xbe,
  0x72, 0x4a, 0x52, 0x3e, 0xe3, 0x81, 0x8d, 0x3e, 0x22, 0x1a, 0xf3, 0x3d,
  0xef, 0x64, 0xef, 0x3d, 0xba, 0x9a, 0x96, 0x3e, 0xfc, 0x73, 0xcc, 0x3d,
  0x56, 0xe3, 0xe6, 0x3d, 0x45, 0x3b, 0x74, 0x3e, 0xab, 0xa0, 0x06, 0x3e,
  0xcd, 0x4f, 0x31, 0x3e, 0x51, 0x25, 0x09, 0x3e, 0xcd, 0x90, 0x8b, 0x3d,
  0xe8, 0x0c, 0x30, 0xbc, 0x45, 0x9f, 0xeb, 0x3d, 0x04, 0x12, 0xfe, 0xbc,
  0x87, 0x73, 0xce, 0xbd, 0x12, 0xc4, 0x72, 0x3c, 0x2e, 0xf7, 0x3c, 0x3e,
  0x3c, 0xe0, 0x7e, 0x3e, 0x84, 0xdc, 0x79, 0x3d, 0xc7, 0x89, 0x4b, 0x3e,
  0x8b, 0xc0, 0x03, 0x3e, 0xa8, 0x5c, 0x26, 0x3e, 0x11, 0xda, 0x35, 0x3e,
  0x24, 0xa1, 0x58, 0x3e, 0x15, 0xc1, 0x02, 0x3e, 0x2f, 0x85, 0x39, 0x3e,
  0x18, 0x9c, 0x4c, 0x3e, 0x52, 0x24, 0x9e, 0xbd, 0x84, 0xc9, 0x23, 0x3e,
  0xdf, 0xce, 0xf0, 0xbc, 0xba, 0x01, 0xf3, 0xbd, 0x69, 0x64, 0xc6, 0x3d,
  0x52, 0x55, 0x80, 0x3e, 0xed, 0x38, 0xd1, 0x3d, 0x37, 0xfa, 0xb7, 0x3d,
  0x74, 0x81, 0xb1, 0x3d, 0xb2, 0xa8, 0x2e, 0x3e, 0x50, 0x8c, 0x80, 0x3d,
  0x80, 0x38, 0x12, 0x3e, 0x08, 0x0c, 0xac, 0x3d, 0x61, 0xdc, 0x3d, 0x3e,
  0xa9, 0x52, 0x41, 0x3e, 0x95, 0x6c, 0x3f, 0x3e, 0x4f, 0x0c, 0x1c, 0x3c,
  0x53, 0x9a, 0x77, 0x3e, 0xdf, 0x8d, 0x23, 0x3d, 0xf0, 0x3f, 0x13, 0xbe,
  0xee, 0x5d, 0x8f, 0x3d, 0x24, 0xfd, 0x41, 0x3e, 0xc8, 0xf7, 0x47, 0x3e,
  0x84, 0x08, 0x9e, 0xba, 0x67, 0xf6, 0x5c, 0x3e, 0x43, 0xd0, 0x65, 0x3e,
  0x6d, 0x1c, 0x13, 0x3d, 0xdf, 0xa4, 0x65, 0x3d, 0x6f, 0x94, 0x25, 0x3e,
  0x74, 0x47, 0x82, 0x3e, 0x6b, 0x69, 0xf0, 0x3a, 0xbf, 0x01, 0x46, 0x3d,
  0x2e, 0xb6, 0x98, 0x3b, 0xd5, 0x7a, 0x8a, 0x3e, 0x97, 0xd7, 0x0a, 0xbd,
  0x2e, 0x12, 0x4b, 0xbd, 0xdc, 0x83, 0xaf, 0x3d, 0x66, 0x5b, 0x38, 0x3e,
  0x16, 0x6e, 0x5d, 0x3d, 0x6c, 0xe1, 0xa3, 0xbc, 0x70, 0x83, 0x3c, 0x3e,
  0xc2, 0xce, 0xf3, 0x3d, 0xdd, 0xed, 0x0c, 0x3e, 0xaa, 0x14, 0x8b, 0x3d,
  0x2c, 0x38, 0xd4, 0x3d, 0x8b, 0x5a, 0x82, 0x3e, 0x6a, 0x65, 0x9f, 0x3d,
  0x5f, 0xbc, 0x3b, 0x3e, 0x0c, 0x6b, 0xf6, 0xbb, 0x61, 0x5f, 0x9b, 0x3d,
  0xdc, 0x29, 0x1f, 0x3e, 0xd4, 0xa1, 0x40, 0xbe, 0xfa, 0xdf, 0xf9, 0x3d,
  0x75, 0x0c, 0xfc, 0x3d, 0x7b, 0x92, 0x73, 0x3d, 0x6d, 0x8e, 0xe9, 0xbc,
  0x7e, 0x21, 0x5d, 0x3e, 0xbd, 0x3a, 0x5b, 0x3e, 0xa2, 0x91, 0xfe, 0xbc,
  0xf6, 0x0c, 0x75, 0x3e, 0x93, 0xa0, 0x4a, 0x3e, 0x22, 0xfa, 0x93, 0x3d,
  0x76, 0x75, 0x5f, 0x3e, 0xdf, 0x47, 0x71, 0x3e, 0x43, 0xd9, 0xf5, 0x3b,
  0xfc, 0x6f, 0x67, 0x3e, 0x35, 0xd9, 0xa8, 0x3d, 0xf1, 0xe6, 0x28, 0xbe,
  0x05, 0x86, 0xb9, 0x3c, 0xbb, 0xed, 0x57, 0x3e, 0x31, 0xb7, 0x4c, 0x3e,
  0x65, 0x76, 0x66, 0x3b, 0x5e, 0x9f, 0x89, 0x3e, 0xe1, 0x83, 0xde, 0x3d,
  0xc4, 0x8c, 0xd5, 0x3d, 0xdb, 0x8e, 0x58, 0x3e, 0x07, 0x3d, 0x5d, 0x3e,
  0xc2, 0x63, 0x26, 0x3e, 0xcb, 0x74, 0x18, 0x3e, 0x43, 0xcb, 0xe6, 0x3d,
  0x56, 0xef, 0x9e, 0xbd, 0x6d, 0xdc, 0x3d, 0x3d, 0xcf, 0x01, 0xaf, 0x3c,
  0x06, 0xe1, 0x2e, 0xbe, 0xa3, 0xa6, 0xa4, 0x3d, 0x5f, 0xd0, 0x6c, 0x3e,
  0x6e, 0x58, 0x22, 0x3e, 0x86, 0x3e, 0x18, 0xbc, 0xdc, 0x13, 0x77, 0x3e,
  0x27, 0xca, 0x5b, 0x3e, 0x95, 0xfe, 0x4c, 0x3e, 0xd2, 0x81, 0xe6, 0x3d,
  0x5e, 0x51, 0x8a, 0x3e, 0xd2, 0x38, 0xd9, 0x3d, 0xed, 0x7b, 0x96, 0x3d,
  0x79, 0xee, 0xe4, 0x3d, 0xb7, 0x86, 0x9f, 0xbb, 0xda, 0xa1, 0x1a, 0x3e,
  0x1e, 0x77, 0x86, 0xbc, 0xd4, 0x0e, 0x5c, 0x3d, 0x0d, 0x4c, 0xbc, 0x3c,
  0x7f, 0xca, 0x83, 0x3e, 0x0d, 0xce, 0xde, 0x3d, 0x30, 0xbb, 0xfa, 0x3c,
  0x86, 0x2d, 0x8f, 0x3e, 0xdb, 0xb7, 0x65, 0x3e, 0xdd, 0x48, 0x17, 0x3e,
  0x49, 0x15, 0xfe, 0x3d, 0xda, 0x45, 0xaf, 0x3d, 0xdd, 0x37, 0x73, 0x3e,
  0x1e, 0xb0, 0xed, 0x3c, 0x20, 0xf4, 0x17, 0x3e, 0x27, 0x7f, 0x2b, 0x3d,
  0x4d, 0x98, 0xe9, 0x3d, 0xa5, 0xce, 0xdd, 0x3b, 0xa6, 0x62, 0xad, 0xbd,
  0xa4, 0xdc, 0xb9, 0x3c, 0xe9, 0x29, 0x8b, 0x3e, 0xe3, 0xa9, 0x00, 0x3e,
  0x80, 0x46, 0xc2, 0x3d, 0x79, 0xe2, 0x66, 0x3e, 0x49, 0x5a, 0x46, 0x3e,
  0x19, 0xeb, 0xdb, 0x3d, 0x0a, 0x09, 0x1e, 0x3e, 0x16, 0xb6, 0x01, 0x3e,
  0x33, 0x84, 0xa4, 0x3c, 0xc6, 0xfd, 0x66, 0x3d, 0xcf, 0xe4, 0xee, 0x3d,
  0x4f, 0x02, 0x31, 0xbd, 0xa0, 0x73, 0xba, 0x3c, 0xcd, 0x01, 0xfe, 0xbc,
  0x58, 0x31, 0xde, 0xbd, 0xec, 0x42, 0xfd, 0x3c, 0x47, 0xe5, 0x55, 0x3e,
  0xcb, 0x92, 0x83, 0x3d, 0x24, 0x07, 0xc0, 0x3d, 0x31, 0x2e, 0xb6, 0x3e,
  0x8f, 0x28, 0x7b, 0x3e, 0x90, 0x92, 0xce, 0xbc, 0x22, 0xa3, 0xaf, 0x3c,
  0x9e, 0xc2, 0x52, 0x3e, 0x1c, 0x54, 0x22, 0x3e, 0x90, 0x84, 0x5f, 0x3e,
  0xe3, 0xed, 0x9d, 0x3e, 0xae, 0xe0, 0xa8, 0x3d, 0xff, 0x66, 0x5e, 0x3e,
  0x0f, 0xe9, 0xea, 0x3c, 0x1b, 0x90, 0x45, 0xbe, 0x4b, 0xd4, 0xe6, 0x3d,
  0x39, 0x22, 0x89, 0x3e, 0xb3, 0x7e, 0x3e, 0x3e, 0x18, 0x1b, 0x32, 0xba,
  0x68, 0x39, 0x70, 0x3e, 0x22, 0x65, 0x24, 0x3e, 0x52, 0xf1, 0xd5, 0x3c,
  0x3d, 0x41, 0x9a, 0x3d, 0x65, 0xc1, 0x3d, 0x3e, 0xa9, 0x12, 0x50, 0x3e,
  0x55, 0xc8, 0x22, 0x3e, 0x7d, 0xa9, 0x85, 0x3e, 0x55, 0xc8, 0xca, 0xbc,
  0xd6, 0x88, 0x81, 0x3e, 0xa5, 0x93, 0xe4, 0x3c, 0x53, 0x8c, 0x30, 0xbd,
  0xa3, 0x11, 0xf1, 0x3d, 0x1d, 0x9a, 0x34, 0x3d, 0xeb, 0xee, 0x2d, 0x3e,
  0x81, 0xb7, 0xbf, 0x3d, 0xdd, 0x02, 0x36, 0x3e, 0x9e, 0x2a, 0x5c, 0x3e,
  0x50, 0x80, 0x0d, 0x3c, 0xc1, 0x9e, 0x68, 0x3d, 0xcd, 0x36, 0xe5, 0x3d,
  0x74, 0x97, 0x22, 0x3e, 0x68, 0x95, 0x1d, 0x3e, 0xca, 0xe5, 0x89, 0x3e,
  0x1c, 0x52, 0x96, 0x3c, 0x29, 0xdd, 0x97, 0x3e, 0xe4, 0xc9, 0xbe, 0x3d,
  0x28, 0xcd, 0x3a, 0xbe, 0x32, 0xe9, 0x28, 0x3c, 0xd2, 0xc0, 0x7e, 0x3e,
  0x8c, 0x25, 0xb4, 0x3d, 0xe8, 0x61, 0x35, 0xbc, 0xa8, 0x94, 0x01, 0x3d,
  0xed, 0xb6, 0xbb, 0x3c, 0x55, 0xb9, 0x4a, 0xbc, 0x24, 0xbc, 0xdd, 0xbd,
  0x36, 0x8b, 0xf2, 0x3d, 0xbf, 0xaf, 0x07, 0xbd, 0x1e, 0x22, 0x48, 0xbd,
  0x7d, 0xbc, 0x8d, 0x3d, 0x76, 0x29, 0x7a, 0xbd, 0xd6, 0x0f, 0xf1, 0x3d,
  0x5f, 0xae, 0xdc, 0xbd, 0x1c, 0xcb, 0x43, 0xbd, 0xca, 0xee, 0xc0, 0xbd,
  0x8b, 0x79, 0xda, 0xbc, 0x5f, 0xb7, 0x2f, 0xbd, 0x85, 0x27, 0x13, 0x3d,
  0x0c, 0x47, 0xf8, 0x3d, 0x9e, 0x12, 0xe7, 0xbd, 0x45, 0x79, 0x81, 0x3d,
  0x78, 0x32, 0x79, 0x3d, 0x93, 0x26, 0x0b, 0x3c, 0xa5, 0xca, 0xa1, 0xbc,
  0xb6, 0x6c, 0x36, 0xbd, 0xc9, 0x9c, 0x2f, 0xbc, 0xec, 0x71, 0xf1, 0xbd,
  0x51, 0xa2, 0xaa, 0x3d, 0xb7, 0xae, 0xed, 0xbc, 0x22, 0xc4, 0x3a, 0xbd,
  0xfd, 0xa2, 0x83, 0xbd, 0x0c, 0x77, 0xa1, 0x3d, 0x0e, 0x07, 0x7f, 0x3b,
  0xf2, 0x3f, 0x43, 0xbc, 0x93, 0x76, 0xcc, 0xbd, 0x57, 0x4a, 0xe5, 0xbc,
  0xbf, 0x3c, 0x7d, 0xbd, 0x61, 0x9a, 0x54, 0x3d, 0xa4, 0x33, 0x05, 0x3e,
  0xaf, 0x19, 0x97, 0xbb, 0x4e, 0x13, 0x48, 0xbd, 0x55, 0x32, 0x59, 0x3d,
  0xbe, 0xf7, 0xf4, 0x3b, 0x03, 0x44, 0x7c, 0x3d, 0xb8, 0xc1, 0xeb, 0xbc,
  0x4f, 0xbe, 0x72, 0x3c, 0x01, 0x86, 0x7a, 0x3c, 0xd9, 0x21, 0x7d, 0xbc,
  0x41, 0x52, 0xc8, 0x3b, 0x18, 0x03, 0xb8, 0xbd, 0xee, 0x1e, 0x88, 0x3c,
  0xf2, 0xf1, 0xaf, 0xbd, 0x8a, 0xd8, 0x6e, 0xbd, 0x98, 0x85, 0x61, 0xbd,
  0xfb, 0xfa, 0x0c, 0xbd, 0xb0, 0x69, 0x08, 0x3e, 0x07, 0x14, 0x55, 0xbd,
  0x88, 0x55, 0xf4, 0x3d, 0x4c, 0xf8, 0x41, 0xbb, 0x9c, 0x9f, 0x6d, 0x3b,
  0x02, 0x32, 0xae, 0xbd, 0xec, 0xf0, 0x0a, 0xbe, 0xbc, 0x40, 0xb8, 0x3d,
  0x01, 0x50, 0xac, 0x3d, 0xef, 0xe1, 0xd0, 0x3c, 0x84, 0x91, 0xfa, 0xbd,
  0xeb, 0xdf, 0x33, 0xbc, 0xe6, 0x90, 0x2e, 0x3d, 0x7d, 0xc3, 0x00, 0xbb,
  0x1b, 0x8b, 0x2d, 0xbd, 0x11, 0x2e, 0x5b, 0xbd, 0x6b, 0x63, 0x94, 0xbd,
  0x89, 0x13, 0xcd, 0xbd, 0xf4, 0xf5, 0xd4, 0xbd, 0x3b, 0x69, 0x8c, 0x3d,
  0x47, 0xc4, 0x8a, 0xbd, 0xb1, 0x6b, 0x40, 0xbc, 0x46, 0x63, 0x01, 0xbd,
  0xa5, 0x11, 0xe4, 0xbd, 0x62, 0x07, 0x43, 0x3a, 0xe9, 0x8d, 0xcb, 0x3c,
  0xbc, 0xbb, 0xdf, 0x3d, 0x9f, 0x57, 0x0e, 0x3c, 0x34, 0x38, 0x35, 0xbd,
  0x8e, 0xc5, 0xd2, 0xbc, 0xa5, 0x37, 0x09, 0xbd, 0x66, 0x06, 0x4e, 0xbd,
  0x93, 0x0b, 0x44, 0x3d, 0x5f, 0x43, 0x9b, 0x3d, 0xc0, 0x38, 0xf8, 0x3c,
  0x0a, 0xc1, 0xeb, 0xbd, 0x20, 0xb3, 0xd6, 0x3d, 0xa7, 0x94, 0x31, 0x3d,
  0x14, 0x96, 0xaf, 0x3b, 0xbd, 0xf2, 0xd8, 0x3c, 0x2e, 0x6d, 0x1d, 0x3d,
  0xc2, 0xa5, 0x8c, 0xbd, 0x2d, 0xa7, 0x82, 0xbd, 0x32, 0xd4, 0xd2, 0xbd,
  0xbc, 0x03, 0xb2, 0xbc, 0x93, 0xed, 0x48, 0xbd, 0xf2, 0x1b, 0x92, 0x3c,
  0x05, 0xd1, 0x12, 0xbe, 0x97, 0xdb, 0xdf, 0xbd, 0x43, 0x27, 0xbc, 0x3d,
  0xd3, 0xff, 0x24, 0xbd, 0x76, 0x2c, 0xa7, 0xbd, 0x27, 0x03, 0x98, 0x3d,
  0x58, 0x3e, 0xc2, 0x3c, 0x4e, 0xdc, 0x25, 0xbe, 0x97, 0x4d, 0xf9, 0xbc,
  0xfd, 0x75, 0xd3, 0xbd, 0x64, 0x69, 0xf1, 0x3d, 0xcc, 0xc6, 0x4d, 0x3e,
  0x01, 0x79, 0xbd, 0xbd, 0x4e, 0x88, 0x8e, 0xbe, 0x4d, 0xd2, 0x66, 0xbe,
  0x59, 0xf2, 0xd7, 0xbd, 0xbc, 0x83, 0x03, 0xbe, 0xb1, 0xd1, 0x87, 0xbc,
  0x70, 0x57, 0x84, 0xbd, 0x53, 0x09, 0x37, 0xbe, 0x9c, 0xd0, 0xe4, 0xbd,
  0xf4, 0xdb, 0x99, 0xbe, 0xf4, 0x67, 0x8f, 0x3e, 0x3a, 0xdc, 0x6c, 0xbc,
  0xab, 0x54, 0x07, 0x3f, 0x94, 0xfa, 0xb5, 0xbd, 0x40, 0x51, 0x82, 0xbe,
  0x81, 0x17, 0x9f, 0x3e, 0xf3, 0x7e, 0x57, 0xbe, 0x6f, 0x57, 0xa8, 0xbe,
  0x74, 0x97, 0x27, 0xbe, 0xf0, 0xc5, 0x32, 0xbe, 0x3a, 0x13, 0xd6, 0xbd,
  0x71, 0x15, 0x8c, 0xbe, 0x79, 0xe4, 0xe8, 0xbd, 0xf0, 0x44, 0x88, 0xbe,
  0x75, 0x63, 0xe3, 0xbd, 0x83, 0x68, 0x26, 0xbe, 0x2e, 0xcc, 0xb0, 0x3e,
  0x70, 0x93, 0x7c, 0xbd, 0x0f, 0xa6, 0x0c, 0x3f, 0x72, 0x8c, 0xf7, 0xbd,
  0x53, 0xc6, 0x7f, 0xbc, 0x8d, 0xdf, 0xbf, 0x3e, 0x92, 0xa1, 0x20, 0xbe,
  0x71, 0xeb, 0x6b, 0xbe, 0x04, 0x0c, 0x34, 0xbe, 0xa9, 0xb6, 0x9e, 0x3b,
  0xe5, 0xee, 0x4a, 0xbd, 0xfc, 0xdd, 0x83, 0xbe, 0x49, 0xd4, 0x71, 0xbd,
  0x28, 0xc5, 0x75, 0xbe, 0xec, 0xd3, 0xde, 0x3d, 0x27, 0x79, 0x67, 0xbe,
  0x15, 0x59, 0x58, 0x3e, 0xf5, 0x79, 0x8b, 0x3d, 0xf0, 0xf0, 0xe4, 0x3e,
  0x92, 0x15, 0x8a, 0xbd, 0x39, 0x9a, 0x69, 0xbe, 0xaa, 0xb6, 0x4b, 0x3e,
  0x31, 0x30, 0x67, 0xbe, 0x27, 0x32, 0x5e, 0xbe, 0xb1, 0x29, 0xb8, 0xbd,
  0x51, 0x40, 0x83, 0xbe, 0x26, 0xba, 0x8c, 0xbe, 0x38, 0xde, 0x01, 0xbe,
  0x08, 0x2b, 0x0a, 0xbe, 0x22, 0xbf, 0xbd, 0xbd, 0x2a, 0x2e, 0xab, 0xbd,
  0xee, 0x29, 0xfb, 0xbd, 0xa5, 0xd7, 0x9e, 0x3e, 0x48, 0xdf, 0xbe, 0x3d,
  0x42, 0x0e, 0x03, 0x3f, 0xc9, 0xa6, 0xb2, 0xbd, 0xb5, 0xfc, 0x0b, 0xbe,
  0x16, 0xf6, 0x7e, 0x3e, 0xcf, 0x53, 0xf4, 0xbd, 0xd3, 0x1b, 0x72, 0xbd,
  0x52, 0x09, 0xc0, 0xbd, 0x0a, 0xf8, 0x3f, 0xbe, 0xfe, 0xb4, 0x5b, 0xbe,
  0xeb, 0x69, 0x39, 0xbd, 0x57, 0xcf, 0x1f, 0xbe, 0xe4, 0xe3, 0xe0, 0x3b,
  0x4e, 0xd6, 0xff, 0x3c, 0x4c, 0xbf, 0xc5, 0xbd, 0xe5, 0xe4, 0x83, 0x3e,
  0x29, 0xb7, 0x0c, 0xbe, 0xdf, 0x45, 0xe5, 0x3e, 0x4a, 0xb5, 0xf8, 0xbd,
  0x5b, 0x1e, 0x22, 0xbe, 0xe1, 0x44, 0xb6, 0x3e, 0x5e, 0x0c, 0x28, 0xbe,
  0xc6, 0x79, 0x6d, 0xbe, 0xac, 0xd3, 0x27, 0xbe, 0xdb, 0x9b, 0x12, 0xbd,
  0x38, 0xcc, 0xb7, 0xbd, 0x25, 0x6c, 0x2b, 0xbe, 0xd6, 0x9b, 0x2d, 0xbe,
  0xc8, 0x15, 0x85, 0xbd, 0xd7, 0x00, 0x93, 0x3d, 0x4c, 0xa3, 0xa0, 0xbe,
  0x4d, 0x0f, 0xa1, 0x3e, 0xfa, 0x7f, 0x0b, 0x3e, 0xab, 0x0f, 0xbe, 0x3e,
  0x90, 0x4a, 0xd3, 0xbd, 0x54, 0xe2, 0x0e, 0xbd, 0xb1, 0xa7, 0xba, 0x3e,
  0x20, 0x0b, 0x19, 0xbe, 0x61, 0x84, 0x3a, 0xbe, 0xed, 0x96, 0xc4, 0xbd,
  0x92, 0x09, 0x03, 0xbc, 0x9a, 0xfa, 0x9a, 0xbd, 0x64, 0x68, 0x7b, 0xbd,
  0xff, 0x46, 0x2e, 0xbe, 0xcf, 0xb4, 0x74, 0xbd, 0x85, 0x72, 0xf8, 0x3c,
  0xfb, 0xe6, 0x92, 0xbe, 0xcd, 0xdc, 0xc1, 0x3e, 0xd6, 0x32, 0xc3, 0xbd,
  0x7f, 0x05, 0x9b, 0x3e, 0xd8, 0xa9, 0x1b, 0xbe, 0xa4, 0xb6, 0x48, 0xbe,
  0xda, 0x1f, 0xe8, 0x3d, 0x16, 0x22, 0x74, 0xbe, 0xa3, 0x0a, 0xad, 0xbe,
  0x42, 0x9c, 0xe0, 0xbd, 0x79, 0x81, 0x25, 0xbe, 0xba, 0x75, 0xbb, 0xbd,
  0x62, 0x60, 0xca, 0xbd, 0x87, 0x9d, 0x1c, 0xbe, 0x0f, 0x89, 0xd3, 0xbd,
  0xb7, 0x5a, 0x87, 0x3d, 0x14, 0x35, 0x8b, 0xbe, 0x66, 0x32, 0x2f, 0x3e,
  0xc7, 0xd2, 0xc0, 0xbc, 0x21, 0x09, 0x4a, 0x3e, 0x99, 0x38, 0x31, 0xbe,
  0x29, 0x5c, 0x39, 0xbe, 0xa3, 0x58, 0xc8, 0x3d, 0xf1, 0x02, 0x8f, 0xbe,
  0xac, 0xe6, 0x5d, 0xbe, 0x24, 0x0d, 0xdf, 0xbd, 0x01, 0x50, 0xe1, 0xbd,
  0xf1, 0xa8, 0x1a, 0xbe, 0xf6, 0x63, 0x6a, 0xbe, 0x56, 0xa8, 0x18, 0xbe,
  0x1d, 0x36, 0x1d, 0xbe, 0xef, 0x18, 0xc1, 0xbb, 0x0c, 0xda, 0x39, 0xbe,
  0xb0, 0xe4, 0x6f, 0x3e, 0xbf, 0xef, 0xbf, 0x3c, 0xc7, 0x64, 0x11, 0x3e,
  0xd2, 0x32, 0x23, 0xbe, 0x92, 0x54, 0x0b, 0xbe, 0x5b, 0xd5, 0xfa, 0x3d,
  0xeb, 0x7e, 0x1a, 0xbe, 0xd5, 0x92, 0x91, 0xbe, 0x45, 0x6f, 0x20, 0xbe,
  0x50, 0xad, 0x59, 0xbe, 0x7a, 0xc6, 0x39, 0xbe, 0x3c, 0x4b, 0x47, 0xbe,
  0xd3, 0x94, 0xb0, 0xbd, 0xb8, 0x97, 0xa0, 0xbe, 0x3c, 0xcd, 0x1d, 0xbe,
  0x8d, 0x8e, 0x60, 0xbd, 0xc9, 0x48, 0x1c, 0x3e, 0x44, 0xcb, 0x28, 0xbe,
  0x56, 0xe4, 0x22, 0x3e, 0x8c, 0x76, 0x88, 0xbe, 0x28, 0x12, 0x85, 0xbe,
  0xf2, 0x8f, 0x46, 0x3e, 0x47, 0xdb, 0x07, 0xbd, 0x2a, 0x45, 0x4a, 0xbe,
  0xbe, 0x26, 0x34, 0xbe, 0xcd, 0x11, 0x34, 0xbe, 0xdb, 0x9e, 0xf1, 0x39,
  0x78, 0xec, 0x17, 0xbe, 0x32, 0x75, 0xe4, 0xbc, 0x52, 0x87, 0x26, 0xbe,
  0x1b, 0xda, 0x8e, 0x3d, 0xb2, 0x12, 0x72, 0xbe, 0xdc, 0x81, 0x02, 0x3e,
  0x1f, 0x88, 0x2b, 0x3d, 0x0a, 0x97, 0x6d, 0x3e, 0xd9, 0xee, 0xa2, 0xbd,
  0xaf, 0x37, 0x99, 0xbe, 0x73, 0xac, 0x3e, 0x3e, 0x0c, 0xb9, 0x35, 0xbe,
  0x76, 0x4e, 0xff, 0xbd, 0xb7, 0x10, 0x40, 0xbe, 0xbb, 0x87, 0x2b, 0xbe,
  0xa3, 0x3f, 0x21, 0xbe, 0x9f, 0x41, 0xf0, 0xbd, 0x48, 0x1a, 0x08, 0xbe,
  0xe4, 0x0c, 0x68, 0xbd, 0xe5, 0x32, 0x84, 0x3d, 0x4f, 0x2c, 0x6f, 0xbe,
  0xf5, 0x34, 0x04, 0x3e, 0x57, 0xb9, 0xa2, 0x3c, 0xae, 0x99, 0x86, 0x3e,
  0xb8, 0x8f, 0x25, 0xbe, 0x60, 0x69, 0x7d, 0xbe, 0x97, 0x21, 0x4f, 0x3e,
  0x93, 0x50, 0x94, 0xbd, 0xd4, 0x08, 0x23, 0xbe, 0xaa, 0x17, 0xba, 0xbe,
  0x3c, 0xbb, 0xd7, 0xbd, 0x99, 0x59, 0xc0, 0xbd, 0x60, 0xaf, 0x54, 0xbe,
  0x3d, 0xf4, 0x7b, 0xbe, 0x6a, 0x30, 0x17, 0xbe, 0xdf, 0x38, 0x24, 0xbd,
  0x83, 0x92, 0x85, 0xbe, 0xf6, 0xdf, 0x77, 0x3e, 0x6a, 0x46, 0x58, 0x3c,
  0x10, 0xa1, 0x18, 0x3e, 0xe9, 0xe5, 0x75, 0xbe, 0x21, 0x2d, 0x35, 0xbe,
  0x43, 0x2a, 0x42, 0x3e, 0x47, 0x03, 0x43, 0xbe, 0xb4, 0x41, 0xae, 0xbd,
  0xe0, 0xa5, 0xf7, 0xbd, 0x90, 0x71, 0x2e, 0xbe, 0xdf, 0xae, 0x5c, 0xbe,
  0x9d, 0x73, 0xab, 0xbe, 0xcf, 0x7e, 0x6a, 0xbe, 0xef, 0x49, 0x55, 0xbe,
  0x5e, 0x5f, 0x5f, 0xbd, 0x7f, 0x27, 0x93, 0xbe, 0x78, 0x8a, 0x66, 0x3e,
  0x56, 0x4c, 0xc8, 0xbb, 0xeb, 0x49, 0xce, 0x3d, 0x34, 0xec, 0x92, 0xbe,
  0xa0, 0x9f, 0xad, 0xbe, 0x30, 0x21, 0x3b, 0xbe, 0x9f, 0xf6, 0x93, 0x3e,
  0xcf, 0xd3, 0x90, 0x3e, 0xad, 0x05, 0x92, 0x3e, 0x9a, 0xb4, 0x83, 0x3e,
  0xd7, 0x5c, 0x26, 0x3e, 0x91, 0x4e, 0x87, 0x3e, 0x57, 0x47, 0xaa, 0x3e,
  0x4d, 0x5c, 0xd1, 0x3d, 0x65, 0x9f, 0xe1, 0x3c, 0x68, 0x91, 0x7f, 0x3e,
  0x29, 0x3f, 0x62, 0xbe, 0x33, 0x7d, 0xc8, 0x3d, 0xd6, 0xdc, 0x96, 0xbe,
  0x0d, 0x69, 0x84, 0x3e, 0x90, 0x93, 0xa1, 0x3e, 0x02, 0x86, 0x28, 0xbe,
  0xb3, 0xe2, 0x29, 0x3e, 0x6e, 0xe2, 0xab, 0x3e, 0x4c, 0xcc, 0xbc, 0x3e,
  0x0b, 0x04, 0x86, 0x3e, 0x57, 0x2c, 0x85, 0x3e, 0x4f, 0xab, 0x43, 0x3e,
  0xa9, 0x20, 0x62, 0x3e, 0x02, 0x29, 0x1f, 0x3e, 0x67, 0x70, 0xde, 0xbd,
  0xab, 0xde, 0x7c, 0x3e, 0x57, 0x06, 0x61, 0xbe, 0xaa, 0xe5, 0xa8, 0x3d,
  0xba, 0x73, 0x96, 0xbe, 0x8c, 0xf0, 0x85, 0x3e, 0x8d, 0x95, 0x6c, 0x3e,
  0xec, 0x6e, 0x32, 0xbe, 0x4b, 0xc1, 0x5b, 0x3e, 0xd2, 0xdc, 0xaf, 0x3e,
  0x8f, 0xee, 0xdb, 0x3e, 0x70, 0x4e, 0x53, 0x3e, 0x5c, 0x5b, 0x86, 0x3e,
  0xe3, 0xa7, 0x39, 0x3e, 0xbd, 0x87, 0x89, 0x3e, 0xd0, 0xeb, 0x6c, 0x3e,
  0x1a, 0x4b, 0xa0, 0xbb, 0x57, 0x9b, 0x9c, 0x3e, 0x21, 0x44, 0x95, 0xbe,
  0xb9, 0x8b, 0x9a, 0x3d, 0x38, 0x24, 0xc9, 0xbe, 0x8b, 0x81, 0x42, 0x3e,
  0xa9, 0x4b, 0xc7, 0x3e, 0x9c, 0xa2, 0x1f, 0xbe, 0xc0, 0x79, 0xf3, 0x3d,
  0x27, 0x1a, 0x15, 0x3e, 0xe6, 0xe6, 0xbd, 0x3e, 0x60, 0xf3, 0x08, 0x3e,
  0x71, 0xc8, 0x04, 0x3e, 0xfd, 0x69, 0x9d, 0x3e, 0x0c, 0xa2, 0x33, 0x3e,
  0x7e, 0xab, 0xff, 0x3d, 0xc5, 0xb1, 0x0a, 0xbe, 0x26, 0x52, 0xb6, 0x3e,
  0xfc, 0x3a, 0x68, 0xbe, 0xd3, 0x9a, 0xa3, 0x3d, 0x90, 0x6f, 0xe4, 0xbe,
  0xa7, 0xdb, 0x9c, 0x3e, 0x9c, 0x71, 0xbe, 0x3e, 0xef, 0xc3, 0x35, 0xbe,
  0x09, 0x03, 0x8e, 0x3e, 0x74, 0xfa, 0x50, 0x3e, 0xd7, 0xf8, 0xd6, 0x3e,
  0x10, 0xfd, 0x91, 0x3e, 0xec, 0xd3, 0x57, 0x3e, 0x95, 0xc6, 0x68, 0x3e,
  0x55, 0x53, 0x8e, 0x3e, 0x96, 0xb1, 0xc1, 0x3d, 0x21, 0x7f, 0xc6, 0xbd,
  0xa7, 0x3b, 0x92, 0x3e, 0xd5, 0x32, 0x5e, 0xbe, 0xc1, 0xed, 0xb0, 0x3d,
  0xde, 0x38, 0x92, 0xbe, 0xf3, 0x31, 0x3f, 0x3e, 0x83, 0x9d, 0x8d, 0x3e,
  0x78, 0x0b, 0x8e, 0xbe, 0xc7, 0x5c, 0x80, 0x3d, 0x28, 0x7d, 0xa2, 0x3e,
  0x8a, 0x2e, 0x2b, 0x3e, 0x91, 0x8e, 0xaf, 0x3e, 0xdf, 0xae, 0x8c, 0x3e,
  0xf5, 0x9f, 0x59, 0x3d, 0x01, 0x26, 0x66, 0x3e, 0xaa, 0x3b, 0x30, 0x3e,
  0xc6, 0x40, 0x64, 0xba, 0xd0, 0x6e, 0x90, 0x3e, 0xef, 0x10, 0x39, 0xbe,
  0x23, 0x16, 0x91, 0x3d, 0xa1, 0x23, 0x98, 0xbe, 0x2b, 0xf9, 0x3b, 0x3e,
  0xe1, 0xc2, 0xa5, 0x3e, 0x88, 0x9a, 0x99, 0xbe, 0x89, 0xd6, 0x99, 0x3e,
  0x5b, 0xb4, 0xd3, 0x3e, 0xb0, 0x75, 0x40, 0x3e, 0x5e, 0x23, 0xbb, 0x3e,
  0x35, 0xd4, 0xa3, 0x3d, 0x1b, 0xde, 0x43, 0x3e, 0xef, 0x3e, 0x83, 0x3e,
  0x18, 0xc3, 0x96, 0x3e, 0xa8, 0xf5, 0x86, 0x3c, 0x69, 0xd2, 0x72, 0x3e,
  0x2d, 0x3f, 0x6e, 0xbe, 0xb3, 0x9b, 0x6e, 0xbd, 0xb3, 0x8f, 0xab, 0xbe,
  0x74, 0x8d, 0x35, 0x3e, 0x07, 0x78, 0xa5, 0x3e, 0xf6, 0x90, 0xa4, 0xbe,
  0x51, 0x8a, 0xd0, 0x3d, 0x17, 0xae, 0x00, 0x3e, 0xe5, 0xea, 0xa8, 0x3c,
  0xe7, 0x4c, 0x97, 0x3d, 0x72, 0x49, 0x89, 0x3d, 0x06, 0x80, 0xc0, 0xbc,
  0x0c, 0x9a, 0x45, 0x3c, 0x63, 0x20, 0x4d, 0xbd, 0x7c, 0x36, 0xfd, 0xbd,
  0x7a, 0xcc, 0x18, 0x3e, 0x0e, 0x37, 0x8f, 0xbe, 0xa0, 0xae, 0x6d, 0x3e,
  0x6a, 0x91, 0x01, 0xbf, 0xf2, 0xf5, 0x70, 0x3d, 0xce, 0xaf, 0xdb, 0x3d,
  0xb7, 0xbe, 0x07, 0xbf, 0x97, 0x31, 0xde, 0x3d, 0x64, 0x4b, 0x30, 0x3d,
  0x94, 0x06, 0x81, 0x3d, 0x7c, 0x72, 0x8b, 0x3d, 0x2e, 0xaf, 0x18, 0x3e,
  0x1a, 0x13, 0x22, 0xbd, 0xf4, 0x95, 0xed, 0x3d, 0x20, 0x2a, 0x92, 0xbc,
  0xf3, 0xdb, 0x66, 0x3d, 0xc5, 0x26, 0x25, 0xbd, 0xfa, 0x8b, 0xb3, 0xbe,
  0x10, 0xef, 0x8a, 0x3e, 0x0c, 0xf3, 0x17, 0xbf, 0x79, 0x87, 0x54, 0x3c,
  0xc5, 0x41, 0x4a, 0x3e, 0xe5, 0x7c, 0x89, 0xbe, 0xe6, 0x39, 0xac, 0x3d,
  0x3c, 0xb1, 0x6d, 0xbc, 0x8e, 0x57, 0x0b, 0x3e, 0xb0, 0xa5, 0x22, 0x3e,
  0x30, 0x3d, 0xcb, 0x3d, 0x98, 0x30, 0xd3, 0x3d, 0x75, 0x0a, 0x75, 0x3d,
  0xe1, 0x40, 0x94, 0x3d, 0xd7, 0x41, 0x8a, 0xbd, 0x5a, 0x69, 0x7b, 0x3e,
  0xc7, 0xa7, 0xb6, 0xbe, 0xff, 0x46, 0xa2, 0x3e, 0x98, 0x22, 0x01, 0xbf,
  0x8a, 0x75, 0x36, 0x3e, 0x97, 0x35, 0x07, 0xbd, 0xff, 0x64, 0x02, 0xbf,
  0xd7, 0xa1, 0x72, 0x3d, 0xf1, 0x05, 0x42, 0x3e, 0x7c, 0x43, 0x71, 0x3d,
  0x98, 0x51, 0x85, 0x3d, 0x4f, 0xa0, 0x68, 0x3e, 0xa5, 0x72, 0x35, 0xbd,
  0xe4, 0xe5, 0x6f, 0x3d, 0x41, 0x09, 0x2a, 0x3e, 0xf6, 0x08, 0x5e, 0x3d,
  0x2f, 0x6f, 0x0c, 0x3d, 0xcc, 0xa7, 0xb8, 0xbe, 0x35, 0x98, 0x48, 0x3e,
  0xfb, 0xe4, 0xf3, 0xbe, 0x83, 0x6e, 0xb3, 0xbb, 0x20, 0xa4, 0x0e, 0x3e,
  0x45, 0x5a, 0xc3, 0xbe, 0x44, 0xb8, 0xb9, 0xbb, 0xfe, 0xd1, 0xf5, 0x3d,
  0x21, 0xad, 0xb9, 0x3b, 0x3f, 0x10, 0x94, 0x3d, 0xad, 0xdf, 0xa7, 0x3d,
  0xd6, 0x70, 0x94, 0xbd, 0x32, 0x6a, 0xd7, 0x3d, 0x35, 0x0e, 0x89, 0x3d,
  0x14, 0x9e, 0xde, 0x3d, 0x81, 0x30, 0xcd, 0x3d, 0x84, 0xfe, 0xaa, 0xbe,
  0xc1, 0x8f, 0x72, 0x3e, 0x41, 0x34, 0xe7, 0xbe, 0xed, 0x45, 0x55, 0xbd,
  0xe4, 0x8c, 0x6e, 0x3c, 0xd1, 0xac, 0xbc, 0xbe, 0x5f, 0x67, 0x10, 0x3e,
  0x77, 0x39, 0xfd, 0x3d, 0xaf, 0x8b, 0x02, 0xbd, 0x59, 0x59, 0x89, 0x3d,
  0xb9, 0x2f, 0x93, 0x3d, 0x7b, 0x26, 0x1a, 0x3e, 0x43, 0x88, 0x30, 0xbd,
  0x62, 0xbf, 0x0a, 0x3e, 0xe7, 0x33, 0x19, 0xbe, 0x96, 0x1e, 0x1c, 0x3e,
  0xec, 0x13, 0x9f, 0xbe, 0x44, 0x64, 0x66, 0x3e, 0x36, 0x6f, 0xff, 0xbe,
  0x1c, 0x5f, 0x83, 0x39, 0x69, 0x84, 0x02, 0x3e, 0x66, 0xfd, 0x9d, 0xbe,
  0x60, 0x7c, 0xb0, 0x3d, 0x94, 0x84, 0x62, 0x3e, 0x59, 0x13, 0x8c, 0xbd,
  0xb7, 0xb6, 0x45, 0x3e, 0xde, 0x32, 0xed, 0x3c, 0x1c, 0xfa, 0x58, 0xbd,
  0xef, 0xd4, 0x65, 0x3d, 0x8b, 0xbb, 0x47, 0x3e, 0x5a, 0x1c, 0xe5, 0xbd,
  0x75, 0xe6, 0x63, 0x3e, 0x80, 0x41, 0xb8, 0xbe, 0x76, 0x69, 0x6b, 0x3e,
  0x82, 0xf7, 0xa0, 0xbe, 0x2a, 0x2a, 0x43, 0x3d, 0xea, 0xf2, 0x4a, 0x3c,
  0x3d, 0x4b, 0x1a, 0x3e, 0xea, 0x98, 0xb9, 0xbe, 0xcf, 0x30, 0xaf, 0xbe,
  0x1d, 0xee, 0xea, 0xbd, 0x58, 0xea, 0x2c, 0xbe, 0x63, 0x9f, 0x83, 0xbe,
  0x3b, 0xb2, 0x7a, 0xbe, 0x16, 0xb3, 0x21, 0xbe, 0xaa, 0xf2, 0x85, 0xbe,
  0x19, 0x3f, 0x0c, 0x3e, 0xc3, 0x95, 0x50, 0xbe, 0x62, 0x44, 0x42, 0x3e,
  0x6b, 0x01, 0x5f, 0x3d, 0x59, 0x8a, 0x62, 0x3e, 0x81, 0xa6, 0x81, 0xbd,
  0x39, 0x48, 0x6d, 0xbe, 0xe6, 0x80, 0x98, 0x3e, 0x22, 0xcd, 0x2f, 0xbe,
  0x6f, 0x65, 0xd0, 0xbd, 0x5b, 0x61, 0x84, 0xbe, 0x25, 0x50, 0xdb, 0xbd,
  0xa2, 0xd2, 0x39, 0xbe, 0x54, 0x6d, 0x84, 0xbe, 0x46, 0x49, 0x90, 0xbe,
  0x9d, 0x8e, 0xf3, 0xbd, 0x3b, 0xbb, 0xdb, 0x3d, 0xf1, 0x42, 0x5d, 0xbe,
  0x32, 0x8f, 0xa4, 0x3e, 0x0b, 0xc0, 0x44, 0xbe, 0x07, 0xc4, 0x1d, 0x3e,
  0x91, 0xaa, 0x4e, 0xbe, 0xb9, 0x5a, 0xc5, 0xbd, 0x1f, 0xe2, 0x87, 0x3e,
  0xd2, 0x54, 0x89, 0xbe, 0xb2, 0x14, 0x83, 0xbe, 0x65, 0x0c, 0xfd, 0xbd,
  0x61, 0x85, 0x2d, 0xbe, 0xff, 0xd6, 0x22, 0xbe, 0x61, 0x93, 0x2c, 0xbe,
  0xa0, 0x6d, 0x5f, 0xbe, 0x57, 0xcf, 0xac, 0xbe, 0x26, 0x1d, 0xea, 0x3b,
  0x9e, 0x0d, 0x8b, 0xbe, 0xac, 0x76, 0xa8, 0x3e, 0x0e, 0xf7, 0xb3, 0x3d,
  0x2c, 0x7e, 0xc4, 0x3e, 0x42, 0x50, 0x8a, 0xbe, 0x2c, 0x25, 0xe1, 0xbd,
  0xd8, 0xd5, 0x77, 0x3e, 0x85, 0x6a, 0x24, 0xbe, 0xa1, 0x86, 0x8e, 0xbe,
  0x35, 0x2b, 0x48, 0xbe, 0xd2, 0x92, 0xff, 0xbd, 0xb5, 0x4e, 0x6c, 0xbe,
  0xed, 0x17, 0x23, 0xbe, 0x08, 0xda, 0x76, 0xbe, 0x9d, 0xcb, 0x52, 0xbe,
  0x0d, 0x94, 0x13, 0xbd, 0xb2, 0xab, 0x5f, 0xbe, 0x32, 0xe2, 0x5e, 0x3e,
  0x0b, 0x4c, 0xd0, 0xbc, 0x1b, 0xde, 0x9b, 0x3e, 0x8f, 0x1e, 0x33, 0xbe,
  0x00, 0x5a, 0xa0, 0xbe, 0xe6, 0xd7, 0xec, 0x3d, 0x2f, 0xe6, 0x58, 0xbe,
  0x1b, 0xd6, 0x1b, 0xbe, 0x6c, 0xa3, 0x2a, 0xbe, 0x6a, 0xa6, 0x7d, 0xbd,
  0x2a, 0x93, 0xc2, 0x3b, 0x44, 0x8b, 0x8a, 0xbe, 0x2b, 0x62, 0xb5, 0xbd,
  0x7b, 0xec, 0x5f, 0xbe, 0x80, 0xe3, 0x64, 0x3d, 0x46, 0x1d, 0x33, 0xbe,
  0xe4, 0xa8, 0x44, 0x3e, 0x62, 0xd6, 0x6c, 0xbd, 0x8b, 0xc9, 0xe2, 0x3e,
  0x51, 0x7f, 0xee, 0xbd, 0x08, 0x77, 0x67, 0xbe, 0xef, 0xb0, 0x53, 0x3e,
  0x08, 0xec, 0x97, 0xbe, 0x75, 0xd1, 0x9a, 0xbe, 0x55, 0xfa, 0x08, 0xbe,
  0x04, 0x03, 0x4d, 0xbe, 0x41, 0x02, 0xdf, 0xbd, 0x1f, 0xe0, 0x0b, 0xbe,
  0xb3, 0xd2, 0x3c, 0xbe, 0x90, 0xaa, 0x95, 0xbe, 0xf4, 0x95, 0x30, 0x3c,
  0xb9, 0x95, 0x45, 0xbe, 0x3b, 0xcb, 0x75, 0x3e, 0x2b, 0x1e, 0x41, 0x3c,
  0xc0, 0xa3, 0x7f, 0x3e, 0x84, 0x73, 0xf8, 0xbd, 0xa2, 0x28, 0xac, 0xbe,
  0xef, 0xf9, 0x96, 0x3e, 0x8e, 0xc0, 0x74, 0xbe, 0x7c, 0x36, 0xcf, 0xbd,
  0x76, 0x51, 0xf3, 0xbd, 0xf1, 0xe4, 0xac, 0xbd, 0xdf, 0xa6, 0x22, 0x3b,
  0xf4, 0xa0, 0x0d, 0xbe, 0x04, 0x2a, 0x71, 0xbe, 0x8d, 0x01, 0x23, 0xbe,
  0x73, 0x59, 0x13, 0x3e, 0x97, 0x6d, 0x65, 0xbe, 0xb7, 0x83, 0x60, 0x3e,
  0x05, 0xc7, 0x40, 0x3d, 0x5d, 0x70, 0xa0, 0x3e, 0x9a, 0x7c, 0x6d, 0xbe,
  0xd3, 0x5b, 0x33, 0xbe, 0x81, 0xe4, 0x13, 0x3d, 0x0c, 0xf6, 0x00, 0x3e,
  0xd4, 0xcc, 0xc0, 0xbd, 0x01, 0x7e, 0x38, 0x3d, 0x97, 0x4f, 0xdb, 0x3d,
  0x3a, 0x26, 0xf4, 0x3d, 0x8c, 0x73, 0xa1, 0xbc, 0xf9, 0x0e, 0xab, 0x3d,
  0x18, 0x9b, 0x12, 0xbe, 0xf7, 0xa4, 0xbf, 0x3b, 0xb1, 0xa7, 0xab, 0x3d,
  0x16, 0x7e, 0x17, 0xbe, 0xc5, 0x11, 0xd9, 0xbc, 0x33, 0xbd, 0x39, 0xbd,
  0x37, 0x9f, 0xc5, 0x3d, 0x87, 0xbf, 0x53, 0xbd, 0xa0, 0x59, 0x1a, 0xbe,
  0x31, 0xdb, 0x2f, 0xbc, 0x09, 0x09, 0xb5, 0xbd, 0x4f, 0x80, 0x6a, 0xbd,
  0x3e, 0x8e, 0xb1, 0x3d, 0xa4, 0x51, 0x8a, 0x3d, 0x43, 0xf1, 0x36, 0xbd,
  0x0d, 0x63, 0x8d, 0x3d, 0xcd, 0x1b, 0xa6, 0x3c, 0x1a, 0xae, 0x90, 0xbd,
  0x49, 0x11, 0x05, 0xbd, 0xb1, 0x62, 0xca, 0xbd, 0x04, 0x5a, 0x2e, 0x3d,
  0xe6, 0x66, 0x29, 0x3d, 0x71, 0x0b, 0x62, 0xbb, 0xad, 0x32, 0x3d, 0xbd,
  0x0a, 0xc4, 0x60, 0x3b, 0x62, 0x79, 0x52, 0x3d, 0x53, 0x2c, 0xa4, 0xbd,
  0x62, 0xe1, 0x8a, 0xbc, 0x54, 0x4b, 0xf9, 0xbd, 0x4d, 0xce, 0xd8, 0xbd,
  0x3b, 0x1d, 0x69, 0x3b, 0x53, 0xab, 0x08, 0xbe, 0x5e, 0x7d, 0xc3, 0xbc,
  0x12, 0x1b, 0x49, 0xbd, 0x3a, 0x8e, 0x09, 0xbe, 0x71, 0xe7, 0x39, 0xbd,
  0xba, 0x65, 0xf3, 0xbd, 0xf7, 0xce, 0xf7, 0xbd, 0x50, 0x9c, 0xd8, 0xbd,
  0x1c, 0xf6, 0x0c, 0xbe, 0x4a, 0xf8, 0xa2, 0xbd, 0x38, 0x62, 0x0a, 0x3e,
  0xf7, 0x2d, 0xe8, 0x3b, 0xe6, 0x2a, 0x93, 0xbd, 0xdc, 0x3f, 0xd8, 0xbd,
  0x25, 0x07, 0x79, 0xbd, 0xda, 0xf2, 0x0f, 0xbd, 0x09, 0x1c, 0xe1, 0x3c,
  0xa2, 0x6d, 0x33, 0x3d, 0x90, 0xea, 0x3c, 0x3c, 0xcd, 0x0a, 0x1e, 0xbe,
  0xaf, 0x8c, 0x32, 0xbd, 0x38, 0xc1, 0xf6, 0xbd, 0xe6, 0xb1, 0x9d, 0x3d,
  0x7b, 0xd9, 0x70, 0x3b, 0xf9, 0xbb, 0x88, 0xbc, 0x79, 0x12, 0xe7, 0x3c,
  0x8a, 0x8d, 0x55, 0xbd, 0x2b, 0x22, 0xbb, 0xbb, 0x49, 0x69, 0x36, 0xbd,
  0x6a, 0x67, 0x3a, 0xbc, 0x06, 0x33, 0xa3, 0x3d, 0x81, 0xb0, 0xbc, 0x3d,
  0xc3, 0xac, 0x2c, 0xbd, 0xe6, 0x42, 0x50, 0xbc, 0x45, 0xfc, 0xc0, 0xbc,
  0xd7, 0xf9, 0x8b, 0xbd, 0xfd, 0x04, 0xea, 0xbd, 0x94, 0xeb, 0xa4, 0x3d,
  0xa3, 0x95, 0xa6, 0xbd, 0x68, 0x17, 0x07, 0x3e, 0x09, 0x6e, 0xcc, 0xbd,
  0x74, 0x7f, 0x7e, 0xbd, 0xa9, 0xa8, 0x07, 0xbc, 0x8c, 0x40, 0x99, 0x3c,
  0x14, 0xe0, 0xec, 0x3a, 0xb0, 0x3e, 0x1c, 0xbd, 0x71, 0xfe, 0x5b, 0x3a,
  0x05, 0x57, 0x15, 0xbe, 0x24, 0x7e, 0xe3, 0x3c, 0x79, 0x8a, 0x9f, 0xbd,
  0xee, 0x50, 0x12, 0xbe, 0x6c, 0xb1, 0x2b, 0x3d, 0x17, 0xc9, 0x34, 0xbd,
  0x93, 0x96, 0xfd, 0xbd, 0x1b, 0x5c, 0xa7, 0xbb, 0x6d, 0xa0, 0xa6, 0xbd,
  0xf4, 0xa7, 0x26, 0xbd, 0x3b, 0xeb, 0xa6, 0xbc, 0x3e, 0x9c, 0x8d, 0xbd,
  0xc4, 0xd5, 0x82, 0xbd, 0x48, 0x9c, 0xe8, 0x3c, 0xb5, 0x5c, 0x78, 0x3d,
  0xd1, 0x02, 0x31, 0x3b, 0x0c, 0x0f, 0x48, 0xbd, 0xd4, 0xaf, 0x8e, 0x3d,
  0x76, 0xd2, 0x06, 0xbe, 0x6e, 0x85, 0x18, 0x3d, 0xe9, 0x30, 0x87, 0x3c,
  0x02, 0x41, 0x10, 0xbd, 0xfb, 0xb6, 0x12, 0x3e, 0x02, 0x2e, 0x35, 0x3c,
  0x89, 0x95, 0x59, 0x3d, 0x3b, 0x72, 0xa1, 0xbd, 0x1a, 0x7f, 0x63, 0x3d,
  0xb6, 0x26, 0x83, 0x3e, 0x1f, 0x4d, 0x14, 0x3e, 0x61, 0x7c, 0x57, 0x3d,
  0xea, 0x39, 0xb1, 0x3d, 0x63, 0xef, 0xfb, 0x3d, 0xca, 0xbc, 0x08, 0x3e,
  0x18, 0x48, 0x2f, 0x3e, 0xd9, 0x28, 0x1d, 0x3e, 0x6f, 0x42, 0x92, 0x3d,
  0xea, 0x19, 0x55, 0x3e, 0x4d, 0x7b, 0x04, 0x3e, 0xab, 0x34, 0x76, 0xbd,
  0x8f, 0x40, 0x02, 0x3e, 0x4f, 0xf0, 0xed, 0x3d, 0x2f, 0x50, 0x39, 0x3e,
  0x37, 0x8f, 0x7a, 0x3d, 0x51, 0x36, 0x51, 0x3e, 0x5d, 0x75, 0x26, 0x3e,
  0x1c, 0x48, 0x47, 0x3e, 0xbd, 0x66, 0x10, 0x3d, 0x8c, 0xc4, 0x2a, 0x3e,
  0x53, 0x9f, 0x01, 0x3e, 0x7b, 0xa5, 0xac, 0x3d, 0x73, 0xfc, 0x1b, 0x3e,
  0xc4, 0x3f, 0x54, 0xbd, 0xb8, 0x6d, 0x0e, 0x3e, 0x88, 0x32, 0x82, 0xbd,
  0x69, 0x1e, 0x34, 0xbe, 0xb1, 0xfd, 0xd6, 0xbc, 0x3b, 0xf7, 0x17, 0x3e,
  0xdf, 0xf0, 0x3c, 0x3e, 0x68, 0x78, 0x42, 0x3d, 0xe8, 0x6f, 0x90, 0x3e,
  0x13, 0x35, 0x1f, 0x3e, 0xb4, 0xd1, 0x7f, 0x3e, 0xe3, 0x05, 0x0e, 0x3e,
  0x2a, 0x29, 0xb5, 0x3d, 0x8e, 0x58, 0x60, 0x3e, 0x90, 0xc2, 0xd4, 0x3d,
  0x48, 0x41, 0x27, 0x3e, 0x66, 0x34, 0xd2, 0xbc, 0x30, 0xd3, 0x43, 0x3e,
  0x83, 0xfb, 0x35, 0x3d, 0x18, 0x3d, 0x02, 0xbe, 0xb8, 0x9e, 0xfc, 0x3d,
  0xf0, 0x24, 0x56, 0x3e, 0x3d, 0x43, 0x2e, 0x3e, 0xe1, 0xe0, 0x7b, 0xbc,
  0x8d, 0x22, 0x3f, 0x3e, 0x60, 0x43, 0xb5, 0x3e, 0x5f, 0x1e, 0xdc, 0x3d,
  0xb6, 0xde, 0x42, 0x3d, 0x79, 0x39, 0xaf, 0x3d, 0x37, 0xec, 0xe6, 0x3c,
  0x5d, 0xe0, 0xdf, 0x3d, 0x60, 0xf2, 0x81, 0x3d, 0x7c, 0x96, 0xd3, 0xbd,
  0xaf, 0x42, 0x93, 0x3d, 0xfd, 0x06, 0xd5, 0x3d, 0xac, 0x42, 0xd8, 0xbd,
  0x1e, 0x80, 0x52, 0xbc, 0x85, 0xe9, 0x95, 0x3e, 0x2f, 0x81, 0xd9, 0x3d,
  0xcc, 0x6b, 0xa7, 0xbd, 0x70, 0xe1, 0x5f, 0x3e, 0x79, 0x3b, 0x21, 0x3e,
  0x10, 0x08, 0x16, 0x3d, 0x78, 0xed, 0xc9, 0x3d, 0x14, 0xa7, 0x8f, 0x3e,
  0x5a, 0x49, 0x61, 0x3e, 0x3b, 0xd6, 0x06, 0x3d, 0x32, 0x44, 0x26, 0x3e,
  0x0b, 0xb3, 0x05, 0x3d, 0x7c, 0x62, 0x3a, 0x3e, 0x9f, 0xba, 0x3e, 0x3c,
  0x7e, 0xd2, 0x96, 0xbd, 0x5e, 0xc7, 0x45, 0x39, 0x19, 0xd5, 0x9c, 0x3c,
  0x3b, 0x2e, 0x11, 0x3e, 0xa9, 0x8e, 0x84, 0x3d, 0x99, 0x71, 0x98, 0x3d,
  0x40, 0xa3, 0x6d, 0x3e, 0x04, 0x82, 0x99, 0x3d, 0x1c, 0x5f, 0x04, 0x3e,
  0x08, 0xd5, 0x0a, 0x3e, 0x69, 0xb0, 0xae, 0x3d, 0x5e, 0xd4, 0x39, 0x3d,
  0x05, 0xa8, 0xe7, 0x3b, 0x44, 0x2e, 0x00, 0xbd, 0x42, 0xa2, 0xf1, 0x3d,
  0xe1, 0x3e, 0xd8, 0xba, 0xba, 0x6d, 0x0c, 0xbe, 0xd1, 0xb4, 0x61, 0x3e,
  0x92, 0x4b, 0x25, 0x3e, 0x14, 0xca, 0x22, 0x3e, 0xda, 0x75, 0x58, 0xbc,
  0xd8, 0xb7, 0xcc, 0x3d, 0x5b, 0xe9, 0x0f, 0x3e, 0xee, 0x35, 0x7c, 0x3d,
  0xda, 0xd1, 0xf9, 0x3c, 0x21, 0x0b, 0x48, 0x3e, 0xe2, 0xe7, 0xdf, 0x3d,
  0xba, 0xfe, 0x47, 0x3e, 0x68, 0x3f, 0x82, 0xbc, 0x77, 0x39, 0x80, 0x3c,
  0x60, 0xb3, 0x68, 0x3e, 0x82, 0xe4, 0xf2, 0x3c, 0x86, 0xc1, 0x4a, 0xbe,
  0xa0, 0xde, 0x0a, 0x3d, 0x99, 0x66, 0x2c, 0x3e, 0xbd, 0xf7, 0xe8, 0x3d,
  0x21, 0xeb, 0x75, 0xbc, 0xb0, 0x89, 0xba, 0xbc, 0xad, 0xfe, 0x78, 0x3c,
  0xc3, 0x71, 0x49, 0x3c, 0x50, 0xe4, 0x80, 0x3c, 0xd9, 0xb6, 0x97, 0x3c,
  0xf4, 0xf0, 0xf3, 0x3d, 0x79, 0xbd, 0x27, 0xbd, 0x82, 0xb6, 0x9f, 0x3c,
  0x73, 0x94, 0xdc, 0xbc, 0x57, 0xe0, 0xb5, 0x3d, 0x66, 0xff, 0x12, 0xbe,
  0xa9, 0xa0, 0xd5, 0xbc, 0xfb, 0x10, 0x62, 0x3d, 0x8f, 0x87, 0x68, 0xbc,
  0xf2, 0xf4, 0x2f, 0x3d, 0xd7, 0x1f, 0x3b, 0x3d, 0xd0, 0xa7, 0x9e, 0xbd,
  0xb0, 0x6b, 0xe3, 0xbd, 0xab, 0xe3, 0x53, 0xbd, 0x1a, 0x45, 0xdf, 0x3c,
  0x07, 0x12, 0xe2, 0x3c, 0x46, 0x67, 0x72, 0x3d, 0x84, 0xdf, 0xcd, 0xbc,
  0xfc, 0xbd, 0xac, 0xbd, 0xe2, 0xbf, 0x97, 0xbd, 0x33, 0x58, 0x79, 0x3d,
  0xc2, 0xfe, 0xcc, 0xbc, 0x86, 0x05, 0x5a, 0x3d, 0xf1, 0xa4, 0x3c, 0xbd,
  0x49, 0x19, 0xf9, 0xbc, 0xe1, 0xc9, 0xd3, 0xbc, 0x2e, 0x3d, 0x04, 0xbe,
  0x3c, 0x63, 0xfd, 0x3c, 0x91, 0xb2, 0x85, 0xbd, 0x9a, 0xcb, 0x33, 0xbc,
  0x60, 0x66, 0x1d, 0x3d, 0x2d, 0x08, 0x88, 0x3d, 0xe3, 0x2a, 0x69, 0x3d,
  0x9c, 0xde, 0x80, 0x3c, 0x53, 0x30, 0x90, 0xbd, 0x79, 0x12, 0x56, 0xbd,
  0x84, 0x47, 0x84, 0xbd, 0xdd, 0x14, 0x03, 0xbe, 0x7b, 0xda, 0x60, 0xbd,
  0x1c, 0x1d, 0x79, 0xbd, 0x81, 0x34, 0x94, 0x3d, 0x3a, 0x45, 0xfe, 0xbc,
  0x67, 0xec, 0xe1, 0x3b, 0xa3, 0xc8, 0x9c, 0xbd, 0x47, 0xe4, 0x77, 0xbd,
  0xdb, 0x8c, 0x2f, 0xbd, 0xa3, 0x64, 0x56, 0xbb, 0x4e, 0x7b, 0xfe, 0xbc,
  0x27, 0x37, 0xbe, 0x3c, 0xeb, 0x67, 0x7e, 0xbd, 0xa2, 0x8d, 0xca, 0xbd,
  0xfd, 0x88, 0x15, 0xbd, 0xf7, 0x1c, 0xcb, 0x3c, 0x28, 0xce, 0x6c, 0x3d,
  0x68, 0x0e, 0x8e, 0xbb, 0x34, 0x0e, 0x18, 0xbe, 0xda, 0x46, 0x83, 0xbd,
  0x2d, 0x0b, 0x3d, 0x3d, 0xd7, 0xd5, 0x80, 0xbd, 0xb9, 0x56, 0x98, 0xbd,
  0xb8, 0x6a, 0xbd, 0xbc, 0x86, 0xb7, 0x0a, 0xbc, 0x42, 0x13, 0x19, 0xbd,
  0xdb, 0x83, 0x42, 0x3d, 0xfe, 0xd8, 0x67, 0x3b, 0x4d, 0x12, 0x87, 0xbd,
  0xf0, 0x5e, 0x94, 0xbd, 0x1f, 0x18, 0xc0, 0xbd, 0xa8, 0xd5, 0x10, 0xbd,
  0x80, 0xbe, 0x85, 0xbc, 0x5a, 0xf5, 0xa9, 0xbc, 0x76, 0xcd, 0xfb, 0xbc,
  0x85, 0xe1, 0x5c, 0xbc, 0xd4, 0xfe, 0x73, 0x3c, 0x69, 0x2e, 0x30, 0x3d,
  0x09, 0x95, 0x83, 0xbb, 0x93, 0x44, 0xc1, 0xbd, 0x96, 0x1d, 0x8b, 0xbd,
  0x90, 0x82, 0x15, 0xbd, 0x97, 0xb2, 0x96, 0x3d, 0x5e, 0x69, 0xfe, 0xbd,
  0xd4, 0xb8, 0x14, 0x3c, 0xed, 0xd6, 0x37, 0x3a, 0x70, 0xc2, 0x51, 0xbd,
  0xa5, 0xf4, 0x83, 0x3d, 0x84, 0x47, 0xc1, 0xbc, 0x67, 0x34, 0xe2, 0xbd,
  0xc6, 0xb7, 0xa0, 0x3c, 0xe2, 0xaf, 0x2f, 0xbd, 0x36, 0x06, 0xef, 0x3c,
  0xab, 0xaf, 0x09, 0xbd, 0xb0, 0x81, 0x2e, 0xbc, 0x9f, 0xfb, 0x3f, 0xbd,
  0x7a, 0x20, 0x06, 0xbd, 0xc2, 0x3c, 0xfb, 0x3d, 0x31, 0x81, 0x99, 0xbd,
  0xf0, 0xf7, 0x89, 0x3d, 0x9b, 0xe5, 0x70, 0xbc, 0x0d, 0xdc, 0x44, 0xbd,
  0xbc, 0xe6, 0x6d, 0x3d, 0x69, 0xfa, 0x3a, 0xbb, 0xad, 0x47, 0xa0, 0x3d,
  0x2d, 0x89, 0xbe, 0xbc, 0x8a, 0x9e, 0x2c, 0x3c, 0xbb, 0x35, 0x42, 0x3d,
  0xed, 0x52, 0xa1, 0xbd, 0xcf, 0x10, 0xc7, 0x3e, 0xc4, 0x65, 0x88, 0x3d,
  0x9d, 0x2a, 0x1e, 0xbe, 0x53, 0x2d, 0x33, 0xbb, 0xfc, 0x36, 0x1f, 0x3e,
  0xfb, 0x65, 0x01, 0x3e, 0xc4, 0xe0, 0xe6, 0x3d, 0xdb, 0x6f, 0x80, 0x3d,
  0x42, 0xf2, 0x8f, 0xbd, 0xc2, 0xa6, 0x2c, 0x3e, 0x93, 0xc1, 0xa5, 0xbd,
  0xea, 0x74, 0xbc, 0x3e, 0xb3, 0x44, 0xc3, 0x3d, 0x7b, 0xc8, 0xf2, 0x3e,
  0x6d, 0xef, 0x2d, 0xbd, 0x86, 0x80, 0xce, 0x3d, 0xb3, 0x8f, 0xaa, 0x3e,
  0x35, 0x58, 0xab, 0x3d, 0x9a, 0xc6, 0x01, 0x3d, 0x81, 0x6a, 0x17, 0x3d,
  0x94, 0xae, 0x34, 0x3e, 0x99, 0xa4, 0xb8, 0x3d, 0x37, 0xf2, 0x01, 0x3e,
  0x21, 0xcc, 0x68, 0x3d, 0x56, 0xb6, 0x21, 0xba, 0x27, 0x91, 0x44, 0x3e,
  0x5d, 0xb0, 0x9f, 0x3d, 0xfc, 0x72, 0x9c, 0x3e, 0xb0, 0x9b, 0x26, 0xbd,
  0x13, 0xdb, 0x0f, 0x3f, 0x21, 0x68, 0xa6, 0x3d, 0xfd, 0x79, 0xb6, 0x3d,
  0xc5, 0x17, 0xbe, 0x3e, 0x7e, 0x2e, 0xb6, 0x3d, 0xcf, 0xcb, 0x32, 0x3c,
  0xe6, 0x9e, 0xfc, 0x3c, 0x07, 0xd1, 0x04, 0x3d, 0xb1, 0x6d, 0x11, 0x3e,
  0xf7, 0x95, 0x96, 0x3d, 0x02, 0xbd, 0x9f, 0x3c, 0x6a, 0x95, 0x81, 0x3c,
  0x4c, 0xa8, 0x61, 0x3d, 0x6c, 0xca, 0x9b, 0xbd, 0x5b, 0xf0, 0x01, 0x3f,
  0xd0, 0xf1, 0xda, 0xbd, 0x08, 0xfc, 0xd9, 0x3e, 0xed, 0x81, 0xe8, 0x3d,
  0x8d, 0x7a, 0xf2, 0x3d, 0xb3, 0xa9, 0x01, 0x3f, 0xf5, 0xbf, 0x79, 0x3d,
  0xa3, 0x66, 0xae, 0xbd, 0xba, 0xbb, 0x25, 0x3e, 0xcf, 0x11, 0x17, 0x3e,
  0x56, 0x6f, 0x10, 0x3e, 0x4e, 0xce, 0x2d, 0x3e, 0x09, 0x3e, 0x4e, 0x3e,
  0x50, 0xce, 0xdb, 0xbd, 0xd5, 0x20, 0x94, 0x3d, 0x05, 0xe9, 0xfd, 0xbd,
  0x9f, 0xc5, 0xc0, 0x3e, 0xcd, 0xa6, 0x4a, 0x3d, 0xf1, 0x95, 0xeb, 0x3e,
  0x29, 0x0a, 0x6f, 0xbd, 0xfe, 0x3c, 0x29, 0x3e, 0x9f, 0x7c, 0xec, 0x3e,
  0x53, 0xe8, 0xb7, 0xbc, 0x5c, 0x77, 0x65, 0x3e, 0x3a, 0x77, 0xeb, 0x3c,
  0x27, 0xf9, 0xca, 0x3d, 0x1f, 0xc1, 0x64, 0x3d, 0x4b, 0x83, 0x9b, 0x3d,
  0xba, 0x4f, 0x0b, 0x3e, 0xfe, 0x51, 0x94, 0x3d, 0x83, 0x3e, 0xa8, 0x3d,
  0x03, 0xfd, 0x1b, 0x3d, 0x48, 0xed, 0xba, 0x3e, 0xd1, 0xc5, 0x77, 0xbd,
  0x32, 0xbf, 0x14, 0x3f, 0x48, 0xa2, 0x9a, 0x3d, 0xa5, 0x9b, 0x4a, 0x3e,
  0x36, 0xc1, 0x19, 0x3f, 0x30, 0x09, 0xc1, 0x3d, 0xa5, 0x06, 0x13, 0x3e,
  0x02, 0x97, 0x20, 0xbd, 0x6d, 0x8d, 0x8b, 0x3d, 0x09, 0x5a, 0xb4, 0xbc,
  0x98, 0x80, 0x67, 0x3e, 0x3c, 0x49, 0x45, 0x3e, 0x44, 0x73, 0x1d, 0x3e,
  0xf9, 0x75, 0x2b, 0x3e, 0x29, 0x03, 0xbf, 0xbc, 0x22, 0xba, 0xb7, 0x3e,
  0x3d, 0xed, 0x84, 0xbd, 0x77, 0x80, 0xf5, 0x3e, 0xae, 0x89, 0xb3, 0x3d,
  0x49, 0x5c, 0x17, 0x3d, 0xe4, 0x44, 0xc9, 0x3e, 0xa9, 0x0f, 0x8c, 0x3c,
  0xfc, 0x7c, 0x45, 0x3e, 0xf7, 0x9b, 0x3f, 0x3d, 0xe8, 0x68, 0x12, 0x3d,
  0x5b, 0xbc, 0x7b, 0xbc, 0x3a, 0x15, 0xe7, 0x3d, 0xfe, 0x90, 0x73, 0x3c,
  0xef, 0x2c, 0x59, 0x3d, 0x1a, 0xb9, 0x52, 0x3d, 0x62, 0xe2, 0xca, 0x3d,
  0x8c, 0xf4, 0xdf, 0x3e, 0x82, 0x27, 0x40, 0x3b, 0x89, 0x63, 0xf2, 0x3e,
  0xfb, 0xaf, 0x1b, 0x3e, 0x70, 0x5b, 0xd8, 0xbc, 0x3f, 0xa2, 0xb0, 0xbe,
  0x97, 0xf0, 0x0b, 0x3c, 0xc2, 0x41, 0xf4, 0x3d, 0x01, 0x37, 0x9a, 0x3d,
  0x78, 0x7e, 0x8a, 0xbd, 0x3b, 0x72, 0x97, 0xbd, 0x7a, 0x9f, 0x05, 0xbe,
  0x93, 0x0b, 0x5c, 0xbd, 0x50, 0xb9, 0x2c, 0x3d, 0x8b, 0x58, 0xff, 0xbd,
  0x41, 0xb5, 0xf7, 0x3d, 0x61, 0xf2, 0xd8, 0xbe, 0xd3, 0xe3, 0x15, 0xbd,
  0xd2, 0x72, 0x12, 0xbf, 0xaf, 0xdc, 0xfc, 0x3d, 0x51, 0x5f, 0x8e, 0x3d,
  0x56, 0x90, 0x13, 0xbf, 0x18, 0x2b, 0xc6, 0x3d, 0x65, 0xf5, 0x8b, 0xbc,
  0x58, 0x16, 0x08, 0xbd, 0x64, 0x9d, 0x1a, 0xbe, 0x4e, 0x79, 0xaf, 0x3d,
  0x7e, 0xb8, 0xb0, 0x3d, 0xd4, 0x27, 0xd2, 0xbc, 0x5c, 0x64, 0x10, 0x3d,
  0x68, 0xbe, 0x09, 0xbe, 0x98, 0x0e, 0x0d, 0x3e, 0x18, 0x17, 0xd8, 0xbe,
  0x59, 0xb1, 0xfd, 0xbb, 0x1b, 0x76, 0x16, 0xbf, 0x1f, 0x01, 0xb1, 0x3d,
  0x33, 0x23, 0x99, 0xbc, 0xa1, 0x6f, 0xfa, 0xbe, 0x45, 0x97, 0x82, 0x3d,
  0xb8, 0x13, 0xd2, 0xbd, 0xf3, 0xcc, 0xae, 0x3d, 0x79, 0xa6, 0x87, 0x3c,
  0xf6, 0x69, 0x7a, 0xbd, 0x6e, 0x74, 0xa5, 0xbd, 0x16, 0xc6, 0x4d, 0xbc,
  0x9b, 0x1e, 0xc6, 0x3c, 0x7f, 0x0a, 0x1c, 0xbd, 0x88, 0x3b, 0x93, 0x3d,
  0x16, 0x47, 0xb0, 0xbe, 0xe8, 0x1d, 0x49, 0x3d, 0x59, 0x75, 0xc2, 0xbe,
  0x97, 0x9d, 0xc1, 0xbd, 0xd5, 0x5e, 0x1d, 0xbe, 0x82, 0x67, 0x29, 0xbf,
  0xf4, 0xaa, 0x04, 0xbe, 0x38, 0x88, 0x62, 0xbe, 0xc5, 0x99, 0x62, 0xbd,
  0x5f, 0x50, 0xda, 0xb9, 0x6f, 0x49, 0x37, 0xbd, 0xf7, 0x4c, 0x10, 0x3d,
  0x00, 0xce, 0xa3, 0xbd, 0xf3, 0x92, 0xf7, 0xbb, 0x83, 0xaa, 0x70, 0xbd,
  0x3e, 0x02, 0xba, 0xbd, 0x48, 0x09, 0x85, 0xbe, 0xe3, 0xa6, 0x25, 0x3e,
  0x04, 0x05, 0x08, 0xbf, 0x4f, 0xa0, 0xa7, 0xbd, 0x5a, 0x58, 0x9b, 0xbc,
  0x02, 0x5e, 0x0d, 0xbf, 0xf1, 0x6b, 0x19, 0x3c, 0x8f, 0xe1, 0x93, 0xbe,
  0x1d, 0x8c, 0x94, 0xbd, 0x94, 0x09, 0x16, 0x3d, 0xf4, 0x9c, 0x96, 0xbd,
  0x79, 0x6d, 0x40, 0xbd, 0x71, 0x7d, 0x81, 0xbd, 0x3b, 0x9e, 0xbf, 0xbb,
  0x76, 0x14, 0xd0, 0xbd, 0xac, 0x45, 0x52, 0x3d, 0xa7, 0x4e, 0xba, 0xbe,
  0x34, 0xe4, 0x1f, 0x3e, 0x6e, 0x0e, 0x11, 0xbf, 0x46, 0x0a, 0x76, 0x3c,
  0x2c, 0x12, 0x91, 0xbd, 0xf3, 0x4f, 0x19, 0xbf, 0xd0, 0xb2, 0x13, 0x3e,
  0x8d, 0xec, 0xb1, 0xbc, 0xc9, 0x25, 0x04, 0xbe, 0xdc, 0xa5, 0x86, 0xbd,
  0x30, 0x61, 0xb5, 0xbd, 0xcb, 0xd4, 0x2f, 0xbd, 0x34, 0x89, 0x4f, 0xbe,
  0x77, 0x7d, 0x45, 0x3c, 0x05, 0xf3, 0xe5, 0xbc, 0xdb, 0x17, 0x5d, 0xbc,
  0xfc, 0x8b, 0xe2, 0xbe, 0x89, 0x86, 0xe3, 0x3d, 0x00, 0xa8, 0x1d, 0xbf,
  0x29, 0x76, 0x37, 0xbc, 0x59, 0x6e, 0x78, 0xbd, 0xcc, 0x3e, 0x26, 0xbf,
  0x00, 0x2c, 0xf8, 0x3c, 0x7d, 0xba, 0xa9, 0x3d, 0x4f, 0x80, 0x77, 0xbe,
  0x1a, 0x0a, 0x25, 0xbe, 0x84, 0x32, 0x9d, 0xbd, 0xe3, 0xd6, 0xa4, 0xbd,
  0xd6, 0x15, 0x14, 0xbe, 0x8a, 0x12, 0xb7, 0x3c, 0x6d, 0xbf, 0xd1, 0xbc,
  0x73, 0x29, 0xe7, 0xbd, 0x50, 0x20, 0x07, 0xbf, 0x0a, 0x27, 0xe3, 0x3d,
  0x6b, 0xb2, 0x26, 0xbf, 0xb9, 0xb8, 0xf1, 0xbd, 0x76, 0xa1, 0x18, 0x3d,
  0x48, 0x0c, 0x0a, 0x3f, 0xd9, 0x34, 0x12, 0x3e, 0xf1, 0x05, 0x49, 0xbe,
  0xb7, 0xc6, 0xb0, 0x3d, 0x61, 0xe3, 0xb9, 0x3d, 0x41, 0xab, 0x9c, 0x3d,
  0x1c, 0x11, 0x2f, 0xbd, 0x87, 0xed, 0x20, 0x3e, 0xb8, 0x77, 0x65, 0x3c,
  0xa1, 0x71, 0x68, 0x3e, 0x89, 0x54, 0x40, 0xbe, 0x5b, 0x05, 0xad, 0x3e,
  0xb3, 0xea, 0xa9, 0x3c, 0x47, 0x9a, 0x02, 0x3f, 0x76, 0xa7, 0x4f, 0x3d,
  0x22, 0x56, 0x27, 0x3d, 0x19, 0x43, 0xfd, 0x3e, 0x21, 0x8c, 0x74, 0x3c,
  0x60, 0xb9, 0x19, 0xbe, 0x69, 0xbc, 0x98, 0x3d, 0x2f, 0x3d, 0x61, 0x3d,
  0x89, 0x7f, 0x3f, 0x3c, 0x19, 0x45, 0x3b, 0x3d, 0xce, 0xfb, 0x8a, 0x3d,
  0xec, 0xe0, 0x62, 0x3d, 0x30, 0x2a, 0x24, 0x3d, 0xf3, 0x47, 0x51, 0xbe,
  0x7b, 0x49, 0xbe, 0x3e, 0x21, 0xae, 0x4b, 0x3c, 0x36, 0xbe, 0x02, 0x3f,
  0x0b, 0x1f, 0xa2, 0x3d, 0xc3, 0xba, 0xb0, 0x3c, 0x36, 0xf6, 0xe9, 0x3e,
  0x19, 0xca, 0x2e, 0x3d, 0x6d, 0x99, 0x47, 0xbe, 0x88, 0x14, 0x43, 0x3e,
  0x16, 0xb6, 0x81, 0x3d, 0x84, 0x26, 0x08, 0x3e, 0xaf, 0x31, 0xa4, 0x3d,
  0xc5, 0xbe, 0xe6, 0x3c, 0x58, 0x98, 0x19, 0x3b, 0xf8, 0xcc, 0x09, 0x3e,
  0x8c, 0xee, 0x74, 0xbd, 0x7f, 0x9f, 0xfb, 0x3e, 0x69, 0xaf, 0xd8, 0xbd,
  0x8a, 0x12, 0x01, 0x3f, 0x25, 0xd7, 0x88, 0x3d, 0xc8, 0x2d, 0x95, 0x3d,
  0x3d, 0xa5, 0x20, 0x3f, 0x38, 0xe5, 0xc1, 0xbc, 0xa8, 0x6d, 0x7d, 0xbe,
  0x3a, 0x85, 0x68, 0x3e, 0x23, 0x88, 0x36, 0x3e, 0xf2, 0xc5, 0x70, 0x3d,
  0xeb, 0x3e, 0x48, 0x3d, 0xfd, 0xd2, 0x16, 0x3e, 0x06, 0x5f, 0xf0, 0xbc,
  0x44, 0xa3, 0xdd, 0xbc, 0x0f, 0x48, 0x85, 0xbe, 0x1d, 0x8d, 0xc7, 0x3e,
  0xd8, 0xe0, 0xc9, 0x3c, 0xe5, 0x43, 0x04, 0x3f, 0x7f, 0x2d, 0xa6, 0x3d,
  0xcd, 0x20, 0x63, 0x3d, 0xee, 0x87, 0x05, 0x3f, 0x48, 0xcc, 0x6e, 0x3d,
  0x18, 0x2d, 0x24, 0x3e, 0xef, 0x9c, 0x5c, 0x3e, 0x30, 0x6e, 0x2c, 0x3d,
  0x55, 0x8b, 0xce, 0xbc, 0xe0, 0x10, 0x37, 0xbc, 0xda, 0x67, 0x34, 0x3e,
  0x70, 0x5d, 0x19, 0x3e, 0x64, 0x7c, 0xb8, 0x3d, 0xdd, 0xcb, 0x76, 0x3d,
  0xb9, 0x0f, 0xc7, 0x3e, 0xb0, 0x65, 0xd9, 0xbd, 0x57, 0x0a, 0x0e, 0x3f,
  0x55, 0x47, 0xd6, 0x3c, 0x66, 0xc0, 0x01, 0x3e, 0x00, 0xce, 0x0f, 0x3f,
  0xd4, 0xf6, 0x4b, 0x3d, 0x74, 0x6b, 0xa6, 0x3d, 0x8a, 0xb1, 0xc6, 0x3d,
  0x25, 0x0e, 0x9b, 0xbc, 0xff, 0x39, 0xa4, 0x3d, 0xf8, 0x18, 0xfe, 0x3b,
  0x7d, 0x5d, 0x3c, 0x3e, 0x57, 0x11, 0x51, 0x3e, 0xeb, 0xe3, 0x79, 0x3e,
  0xc4, 0xb7, 0x41, 0x3e, 0xd6, 0xcc, 0xb9, 0x3e, 0xea, 0xe5, 0xb4, 0x3d,
  0x05, 0x5f, 0xf9, 0x3e, 0x1a, 0xf0, 0x91, 0x3d, 0x95, 0xef, 0x04, 0x3d,
  0xb8, 0x7e, 0x1d, 0x3f, 0x04, 0xa0, 0x98, 0x3d, 0x5c, 0x10, 0x8f, 0x3d,
  0x3f, 0x98, 0xa2, 0x3d, 0x50, 0x63, 0xbd, 0x3d, 0x18, 0xea, 0xf3, 0x3c,
  0xe1, 0xfd, 0x1d, 0xbd, 0xc4, 0xc7, 0x72, 0x3e, 0x92, 0xf9, 0x6a, 0xbd,
  0x4e, 0x78, 0xb8, 0x3d, 0x10, 0x4d, 0x22, 0x3d, 0x55, 0x81, 0x0f, 0x3f,
  0xc9, 0x15, 0xad, 0xbd, 0xab, 0xd9, 0xdc, 0x3e, 0xea, 0x5c, 0x93, 0x3d,
  0xd8, 0x1a, 0xf7, 0xbc, 0x64, 0x19, 0x9d, 0x3d, 0x37, 0xe6, 0x4c, 0xbb,
  0x07, 0x84, 0xcb, 0x3c, 0x70, 0x0d, 0x95, 0x3d, 0x1e, 0xca, 0x30, 0x3d,
  0xe2, 0xb1, 0x29, 0xbb, 0x8e, 0x04, 0xac, 0xbd, 0xd3, 0x27, 0x75, 0xbd,
  0xdf, 0x41, 0x26, 0x3d, 0x5f, 0x9e, 0xf4, 0x3b, 0xcf, 0xb8, 0x4a, 0xbd,
  0x8d, 0x4d, 0xad, 0xbd, 0x8a, 0x62, 0x8f, 0xbc, 0xf3, 0xd6, 0x49, 0xbd,
  0x16, 0x5f, 0xb3, 0xbd, 0x97, 0x05, 0x14, 0xbd, 0x1b, 0xf1, 0x97, 0x3d,
  0x26, 0xc2, 0xc8, 0xbd, 0xc5, 0xb5, 0x62, 0xbd, 0xe7, 0x81, 0x4e, 0x3d,
  0x86, 0x9e, 0xfd, 0xbc, 0xdb, 0xb2, 0xf3, 0xbd, 0x37, 0xbf, 0xc8, 0x3d,
  0xdf, 0xa2, 0x4c, 0xbd, 0x30, 0x55, 0xa4, 0xbd, 0x17, 0x57, 0x1f, 0xbe,
  0x04, 0x5e, 0x69, 0x3d, 0x14, 0x29, 0x6f, 0xbd, 0x7d, 0x4c, 0x20, 0xbe,
  0x86, 0xd6, 0x86, 0xbd, 0x66, 0x13, 0x26, 0xbe, 0x3a, 0xd8, 0x8d, 0xbd,
  0x2a, 0x49, 0x09, 0xbe, 0x4f, 0x14, 0x01, 0xbc, 0xc1, 0xee, 0xe8, 0xbb,
  0x20, 0xd5, 0x1d, 0xbd, 0x30, 0x78, 0x8c, 0xbd, 0x67, 0x49, 0x41, 0xbc,
  0xba, 0x43, 0x6a, 0xbd, 0x21, 0xfa, 0xb5, 0xbd, 0x26, 0xde, 0x55, 0xbc,
  0xa5, 0x31, 0x91, 0xbb, 0x58, 0xb7, 0x92, 0x3c, 0x5e, 0x65, 0x83, 0xbd,
  0xf5, 0x59, 0x0e, 0xbc, 0x54, 0x77, 0x9b, 0x3c, 0x17, 0x7b, 0xbe, 0x3d,
  0x67, 0x03, 0xfc, 0x3c, 0x9c, 0x6f, 0x8f, 0xbd, 0x7b, 0x2b, 0x96, 0x3c,
  0x81, 0x97, 0x1e, 0xbe, 0x67, 0x29, 0x89, 0xbc, 0x68, 0xdb, 0x6b, 0xbc,
  0x8b, 0x5b, 0x7a, 0xbd, 0x89, 0x0e, 0x4d, 0x3c, 0x94, 0x18, 0x48, 0xbd,
  0x94, 0x19, 0x2a, 0xbd, 0x40, 0x85, 0x69, 0xbd, 0x69, 0x58, 0x54, 0x3d,
  0x84, 0x27, 0xfc, 0xbd, 0xb5, 0x58, 0xa6, 0xbd, 0x6f, 0xde, 0x35, 0xbd,
  0x81, 0xe7, 0xd9, 0x3d, 0xde, 0xab, 0xbb, 0x3d, 0x03, 0x5a, 0xe3, 0xbd,
  0xce, 0x62, 0x8b, 0xbd, 0x56, 0xac, 0xe6, 0x3d, 0xc6, 0xa4, 0x07, 0xbd,
  0x4e, 0x1b, 0x80, 0x3d, 0x4a, 0xf4, 0xa0, 0xbc, 0x40, 0x38, 0x13, 0x3d,
  0xc8, 0x67, 0x49, 0x3d, 0x97, 0xe2, 0xe1, 0xbc, 0x24, 0x1d, 0xfb, 0xb8,
  0x7b, 0xc3, 0x80, 0xbc, 0xb3, 0xef, 0x40, 0x3c, 0xa8, 0x17, 0x02, 0xbd,
  0x77, 0xbc, 0x87, 0xbc, 0x18, 0x90, 0x61, 0xbd, 0x7d, 0x85, 0xd3, 0xbc,
  0x0a, 0x36, 0x8b, 0x3d, 0x99, 0x41, 0x62, 0x3d, 0xa6, 0x76, 0x2f, 0x3d,
  0xbf, 0xb5, 0xe0, 0xbd, 0xa4, 0x55, 0xb0, 0x3d, 0x39, 0xf6, 0x18, 0x3c,
  0x22, 0xad, 0x60, 0xbb, 0x6c, 0xe7, 0xb1, 0xbc, 0x16, 0x4f, 0xfb, 0x3c,
  0x0f, 0x0f, 0x8f, 0x3c, 0x33, 0x09, 0x0e, 0xbe, 0x13, 0x09, 0x9b, 0x3d,
  0x8e, 0xfb, 0xe4, 0x3c, 0x52, 0xd9, 0x53, 0x3a, 0x17, 0x6d, 0x94, 0xbd,
  0xf7, 0x7d, 0x3f, 0x3d, 0x24, 0x4a, 0x31, 0x3d, 0xe0, 0x8a, 0x5e, 0x3d,
  0xe8, 0x32, 0x6d, 0x3d, 0x5c, 0x0b, 0xb9, 0xbb, 0xc5, 0x9c, 0x45, 0xbd,
  0x5f, 0xe1, 0xe8, 0xbb, 0xba, 0x14, 0x45, 0xbd, 0x7b, 0xef, 0xc3, 0xbc,
  0xcc, 0x83, 0xcc, 0x3c, 0x7d, 0x15, 0x7b, 0xbd, 0x82, 0x96, 0xf0, 0x3c,
  0x96, 0x05, 0x7d, 0xbd, 0x6b, 0xb7, 0xa5, 0x3d, 0x98, 0xb5, 0x86, 0xbd,
  0xc8, 0x7e, 0x17, 0xbd, 0x18, 0xe9, 0x16, 0xbe, 0x1d, 0x71, 0x00, 0x3e,
  0xd8, 0x2d, 0xa4, 0xbe, 0xd1, 0xa7, 0x4d, 0xbe, 0x2e, 0xd4, 0xa9, 0xbd,
  0x29, 0x1a, 0x34, 0xbe, 0xa4, 0xc2, 0x1a, 0xbe, 0x8b, 0x43, 0xa1, 0xbe,
  0x4d, 0x04, 0x38, 0xbe, 0x95, 0x91, 0x0c, 0xbe, 0xff, 0x31, 0x99, 0xbd,
  0xff, 0x2d, 0xa9, 0xbe, 0x61, 0xf7, 0x72, 0x3e, 0x6c, 0x2e, 0x00, 0xbc,
  0x0f, 0x43, 0x6a, 0x3e, 0x54, 0xe9, 0xfb, 0xbd, 0xe2, 0xb5, 0x1c, 0xbe,
  0xc8, 0x7e, 0xff, 0x3d, 0xa8, 0x4e, 0x6f, 0xbe, 0x4b, 0xca, 0x4a, 0xbe,
  0x29, 0x9b, 0x36, 0xbe, 0x4a, 0x7f, 0x35, 0xbe, 0x6c, 0xdb, 0x92, 0xbe,
  0x45, 0xd4, 0x96, 0xbe, 0xa3, 0xaa, 0x70, 0xbe, 0x49, 0x0f, 0x93, 0xbe,
  0x46, 0x2f, 0xdc, 0xbc, 0x01, 0xee, 0xf4, 0xbd, 0x4c, 0x54, 0x10, 0x3e,
  0xaf, 0xce, 0xaa, 0xbc, 0xd6, 0x96, 0x8b, 0x3e, 0x07, 0xcc, 0xa7, 0xbd,
  0x57, 0x1b, 0x37, 0xbe, 0x6b, 0xe2, 0x73, 0x3e, 0x72, 0x9d, 0x7f, 0xbe,
  0xa2, 0xb2, 0x8d, 0xbe, 0xbc, 0x41, 0x2c, 0xbe, 0x29, 0xbc, 0x66, 0xbe,
  0x03, 0x17, 0xf7, 0xbd, 0x0f, 0x52, 0x76, 0xbe, 0xc1, 0x13, 0x31, 0xbe,
  0x82, 0xb5, 0x6a, 0xbe, 0xa0, 0x83, 0x74, 0xbc, 0xa0, 0xab, 0x0a, 0xbe,
  0x97, 0xcb, 0x2f, 0x3e, 0xd8, 0x78, 0x77, 0xbd, 0xd4, 0xb9, 0xa0, 0x3e,
  0x3a, 0x40, 0x4b, 0xbe, 0xd0, 0xb2, 0x72, 0xbe, 0xbe, 0x7a, 0x30, 0x3e,
  0xf9, 0x39, 0x3b, 0xbe, 0xb7, 0x47, 0xeb, 0xbd, 0x71, 0xf2, 0x99, 0xbe,
  0x38, 0xb5, 0xcb, 0xbd, 0x6d, 0x28, 0xee, 0xbd, 0x50, 0x3b, 0x8f, 0xbe,
  0x1f, 0x1a, 0x6b, 0xbe, 0x7b, 0x35, 0x2b, 0xbe, 0x0b, 0x46, 0xbf, 0x3a,
  0xb2, 0x3e, 0x8b, 0xbe, 0xbd, 0xc2, 0x6d, 0x3e, 0x20, 0xec, 0x82, 0x3d,
  0xee, 0x22, 0x49, 0x3e, 0xb7, 0xe8, 0x9c, 0xbe, 0x39, 0xbf, 0xaa, 0xbe,
  0x5b, 0xab, 0xd3, 0x3d, 0x53, 0x08, 0x42, 0xbe, 0xaf, 0x36, 0xa3, 0xbe,
  0x8f, 0x68, 0x33, 0xbe, 0x87, 0x51, 0xfd, 0xbd, 0x1a, 0x45, 0x2b, 0xbe,
  0xc8, 0x30, 0x80, 0xbe, 0x4f, 0x80, 0x96, 0xbe, 0xca, 0x6d, 0x8d, 0xbe,
  0xfa, 0x60, 0xc1, 0x3d, 0x77, 0x93, 0x56, 0xbe, 0x83, 0x04, 0x9b, 0x3e,
  0xd2, 0x41, 0x9d, 0xbb, 0x73, 0xcc, 0x38, 0x3e, 0xf5, 0x05, 0x21, 0xbe,
  0xba, 0x35, 0x71, 0xbe, 0x55, 0x1a, 0x85, 0x3e, 0x4e, 0x5a, 0x3b, 0xbe,
  0x5d, 0xea, 0x16, 0xbe, 0xf4, 0xeb, 0x6f, 0xbe, 0x14, 0xad, 0x55, 0xbe,
  0xa9, 0x36, 0x2f, 0xbe, 0xe4, 0xb6, 0x63, 0xbe, 0x19, 0xf5, 0x3a, 0xbe,
  0xe1, 0xd2, 0xae, 0xbe, 0x72, 0xde, 0xa0, 0xbd, 0x3e, 0xa8, 0x1c, 0xbe,
  0x5d, 0xdc, 0x9d, 0x3e, 0xf1, 0xeb, 0xa1, 0xbc, 0x89, 0x10, 0x75, 0x3e,
  0x58, 0x22, 0x19, 0xbe, 0x43, 0x6d, 0x27, 0xbe, 0xa6, 0x03, 0x6a, 0x3e,
  0xc1, 0xc7, 0x47, 0xbe, 0xb3, 0x93, 0x35, 0xbe, 0xb8, 0x51, 0x3b, 0xbe,
  0xd7, 0x14, 0x7b, 0xbe, 0x45, 0x94, 0x7e, 0xbd, 0xcf, 0xd0, 0x7a, 0xbe,
  0x37, 0x36, 0x28, 0xbd, 0x2e, 0x20, 0xa9, 0xbe, 0xde, 0xeb, 0x47, 0xbd,
  0xc9, 0xc0, 0x93, 0xbe, 0x4b, 0xe3, 0xeb, 0x3d, 0x68, 0xb9, 0x79, 0xba,
  0x0f, 0x58, 0xb7, 0x3e, 0x68, 0xb0, 0x26, 0xbe, 0x4f, 0x19, 0x8b, 0xbe,
  0xa9, 0xd9, 0xff, 0x3c, 0xa6, 0xc9, 0x3b, 0x3e, 0x59, 0x95, 0x68, 0x3e,
  0x22, 0xba, 0x48, 0xbd, 0xe4, 0x2b, 0x6f, 0x3e, 0x2e, 0x6e, 0x2d, 0x3e,
  0x81, 0x48, 0x80, 0x3c, 0xe3, 0x5c, 0xf3, 0x3d, 0xf2, 0xb2, 0x86, 0x3d,
  0x99, 0xba, 0x3e, 0x3e, 0x84, 0xce, 0xaf, 0x3d, 0xbc, 0x64, 0xb0, 0xbc,
  0x36, 0xeb, 0x34, 0xbe, 0x78, 0x64, 0x58, 0x3c, 0xcd, 0x97, 0x04, 0x3e,
  0x85, 0x6d, 0x2b, 0x3e, 0xc6, 0x8a, 0xbf, 0xbc, 0xfb, 0x62, 0x47, 0x3e,
  0x71, 0xb5, 0x63, 0x3e, 0x2c, 0x44, 0x2b, 0x3e, 0x01, 0xeb, 0xb1, 0x3d,
  0x04, 0x69, 0x8d, 0x3e, 0x39, 0x4c, 0x28, 0x3e, 0x03, 0x83, 0x0e, 0x3e,
  0xd7, 0x5a, 0xaf, 0x3d, 0x18, 0x23, 0xc8, 0x3d, 0x21, 0xe6, 0x80, 0x3e,
  0x67, 0x81, 0x1b, 0x3d, 0xe3, 0xdf, 0xcd, 0xbd, 0x9a, 0xbc, 0x21, 0x3e,
  0x52, 0x94, 0x40, 0x3e, 0x2b, 0x5c, 0xe9, 0x3d, 0xd2, 0xb2, 0x0e, 0x3e,
  0xe7, 0x90, 0x32, 0x3e, 0x4c, 0xb8, 0x72, 0x3e, 0xff, 0x03, 0x0a, 0x3b,
  0x69, 0xa3, 0x1f, 0x3e, 0x54, 0xec, 0x19, 0x3d, 0x75, 0x6c, 0x40, 0x3d,
  0x9c, 0x33, 0x9b, 0x3d, 0x19, 0x02, 0x3d, 0x3e, 0xc5, 0x40, 0x35, 0xbc,
  0x4a, 0x46, 0x2b, 0x3e, 0x64, 0x5b, 0xfb, 0x3d, 0x73, 0x78, 0x6e, 0xbe,
  0xf3, 0x30, 0xa4, 0x3d, 0xf7, 0xcb, 0x42, 0x3e, 0x16, 0xec, 0x28, 0x3e,
  0x5b, 0x78, 0x34, 0x3d, 0xa3, 0x5b, 0x87, 0x3e, 0x09, 0x47, 0x01, 0x3e,
  0x1c, 0x5b, 0x8d, 0x3d, 0xf3, 0x02, 0x06, 0x3e, 0x00, 0xe0, 0x48, 0x3e,
  0xfb, 0xb9, 0xf5, 0x3d, 0x0e, 0xa4, 0x3b, 0x3d, 0x64, 0xfe, 0x6c, 0x3e,
  0xee, 0x19, 0x7c, 0xbd, 0xa2, 0x91, 0x03, 0x3d, 0xd3, 0xf1, 0xd8, 0xbc,
  0x71, 0xb7, 0x52, 0xbe, 0x19, 0xe2, 0x7b, 0x3d, 0x99, 0x5e, 0x4a, 0x3e,
  0xb1, 0xd5, 0x9b, 0x3d, 0x83, 0xe7, 0xed, 0x3d, 0x68, 0x10, 0x17, 0x3e,
  0x24, 0x47, 0x94, 0x3e, 0x54, 0x51, 0xe7, 0x3d, 0x65, 0xda, 0x91, 0xbc,
  0x24, 0x42, 0x16, 0x3e, 0xc2, 0xfd, 0x52, 0x3e, 0x4f, 0x9c, 0x2f, 0x3e,
  0xdb, 0x65, 0xf4, 0x3d, 0x69, 0x42, 0x02, 0xbd, 0x91, 0x58, 0x42, 0x3e,
  0xb1, 0xd4, 0x87, 0x3c, 0x8b, 0xea, 0x0d, 0xbe, 0x9e, 0xe9, 0x65, 0x3e,
  0x1d, 0x3b, 0x81, 0x3d, 0x0b, 0x71, 0xc5, 0x3d, 0x56, 0x19, 0xaa, 0xbd,
  0x8f, 0xdc, 0x07, 0x3e, 0xae, 0xee, 0x3f, 0x3e, 0x95, 0x42, 0x6a, 0x3d,
  0x20, 0x14, 0x0f, 0x3e, 0x97, 0x2f, 0xc0, 0x3d, 0x75, 0x15, 0x14, 0x3e,
  0xcd, 0xa1, 0x50, 0x3e, 0xd7, 0x78, 0x64, 0x3e, 0x22, 0xee, 0xc3, 0xbd,
  0x28, 0xac, 0x3c, 0x3e, 0x51, 0x6e, 0x0f, 0x3e, 0xbd, 0x61, 0x8f, 0xbd,
  0x47, 0x36, 0x97, 0x3d, 0xe5, 0x27, 0x85, 0x3e, 0x73, 0x2c, 0x27, 0x3e,
  0x2e, 0xb8, 0x18, 0x3c, 0x04, 0x4a, 0xf3, 0x3d, 0xd2, 0x67, 0x86, 0x3e,
  0x56, 0xbe, 0x1e, 0x3e, 0xdc, 0x0d, 0x95, 0x3d, 0x93, 0x15, 0xfb, 0x3d,
  0x54, 0x83, 0x70, 0x3e, 0x65, 0x69, 0x09, 0x3e, 0xea, 0x3a, 0x2b, 0x3e,
  0xde, 0xf1, 0x15, 0xbd, 0x0a, 0x31, 0x46, 0x3d, 0x93, 0x97, 0x25, 0x3e,
  0xa2, 0xef, 0xcd, 0x3c, 0x4a, 0xd3, 0x96, 0x3d, 0x33, 0x3c, 0xf4, 0x3d,
  0xbc, 0x3f, 0x5a, 0x3e, 0x08, 0x0a, 0x21, 0x3d, 0x69, 0xb5, 0xf4, 0xbb,
  0x01, 0x34, 0x72, 0xbe, 0xe5, 0xf0, 0x18, 0xbe, 0x5f, 0x2b, 0x03, 0xbd,
  0xe5, 0xc1, 0xaa, 0xbd, 0x00, 0xe1, 0xa4, 0xbd, 0x9b, 0xb3, 0x0c, 0xbe,
  0x50, 0x41, 0xce, 0xbe, 0x7b, 0xee, 0xfa, 0x3c, 0xe3, 0x39, 0xd6, 0xbd,
  0xb8, 0xa9, 0xcd, 0xbe, 0x90, 0xf6, 0xae, 0x3e, 0x7b, 0xd3, 0x03, 0xbe,
  0x60, 0x75, 0xd0, 0xbd, 0x40, 0xa2, 0x01, 0xbe, 0x6b, 0x56, 0x2f, 0xbe,
  0x13, 0xee, 0x1b, 0xbe, 0x3c, 0xef, 0x09, 0xbe, 0xd7, 0x3a, 0x4a, 0xbd,
  0x48, 0x6b, 0x96, 0xbd, 0x28, 0x38, 0x85, 0x3c, 0x18, 0xaa, 0x6f, 0x3d,
  0x31, 0x6f, 0xf8, 0xbd, 0x6d, 0xbc, 0x58, 0xbe, 0xbc, 0x74, 0x09, 0xbe,
  0xb3, 0x5c, 0x48, 0xbe, 0xf4, 0xb8, 0x32, 0xbe, 0xcf, 0x35, 0xa8, 0x3e,
  0x4a, 0x15, 0x60, 0xbe, 0xe2, 0xc4, 0x19, 0xbe, 0x07, 0xbf, 0xad, 0xbd,
  0x4d, 0xeb, 0x86, 0xbd, 0x9e, 0x0d, 0x32, 0xbd, 0xf0, 0xf8, 0x45, 0x3c,
  0xd7, 0xec, 0x97, 0xbd, 0x50, 0x29, 0x7c, 0xbd, 0x5f, 0x35, 0x2f, 0x3e,
  0xd6, 0xa3, 0x14, 0xbe, 0x11, 0x77, 0x1a, 0xbe, 0x90, 0xb0, 0xa1, 0xbd,
  0x31, 0xce, 0x38, 0xbd, 0x4c, 0x36, 0x24, 0xbd, 0x93, 0xe4, 0x94, 0xbe,
  0x3c, 0xf0, 0x9d, 0x3e, 0xed, 0x89, 0x2d, 0xbe, 0x18, 0xb4, 0x13, 0xbe,
  0x8b, 0x79, 0xcb, 0xbd, 0x24, 0xe7, 0xda, 0xbc, 0x35, 0xa6, 0xcc, 0xbd,
  0xf9, 0x14, 0x8f, 0xbd, 0xbd, 0xe1, 0x54, 0x3d, 0x75, 0x21, 0x62, 0xbd,
  0xed, 0x06, 0x36, 0x3c, 0x60, 0xe2, 0x16, 0xbd, 0x12, 0x24, 0x02, 0xbe,
  0xaa, 0xff, 0x48, 0xbe, 0x0f, 0x72, 0x01, 0x3e, 0x85, 0xdd, 0x63, 0x3c,
  0x2b, 0x6f, 0x46, 0xbe, 0xc4, 0x4f, 0x7e, 0x3e, 0x71, 0x2e, 0xba, 0xbd,
  0x75, 0x7f, 0x75, 0x3d, 0x9f, 0x22, 0xec, 0xbd, 0x1d, 0xbe, 0xcb, 0xbd,
  0x3a, 0x06, 0x5a, 0x3d, 0xb3, 0x15, 0xee, 0xbc, 0x02, 0x91, 0xb3, 0xbc,
  0x4f, 0x87, 0xa5, 0xbd, 0x55, 0x8d, 0xcb, 0xbd, 0xd6, 0xe0, 0x43, 0x3d,
  0x92, 0x00, 0xf2, 0xbd, 0xb3, 0x14, 0x5a, 0xbe, 0x6c, 0xf1, 0x67, 0xbd,
  0xba, 0x24, 0x04, 0xbe, 0xcb, 0xad, 0x27, 0xbe, 0xff, 0xd9, 0x6d, 0x3e,
  0x90, 0x26, 0x9d, 0xbd, 0xba, 0xc6, 0x65, 0xbd, 0xaa, 0xe8, 0x58, 0x3d,
  0x62, 0x9d, 0xbd, 0xbd, 0xc2, 0x12, 0xaf, 0xbd, 0x83, 0x37, 0x12, 0x3d,
  0xa2, 0x23, 0x72, 0x3c, 0x51, 0xbe, 0x5c, 0x3d, 0x63, 0x11, 0x54, 0x3d,
  0x47, 0x47, 0xbf, 0xbd, 0x5b, 0xad, 0x0b, 0xbe, 0xa7, 0x48, 0x5f, 0xbe,
  0xfe, 0x63, 0xb0, 0x3c, 0xac, 0xe9, 0xb1, 0xbd, 0xfd, 0xa8, 0x44, 0xbe,
  0x06, 0x6c, 0x99, 0x3e, 0xdd, 0x4c, 0x69, 0xbd, 0x00, 0x8b, 0xe9, 0xbd,
  0xb3, 0x57, 0x24, 0x3d, 0xf9, 0x7a, 0x08, 0xbe, 0xd8, 0xb8, 0x9c, 0xbc,
  0x60, 0x60, 0x1f, 0x3e, 0x46, 0x27, 0x02, 0xbe, 0xbb, 0x16, 0x0c, 0xbe,
  0x31, 0x37, 0xd5, 0x3d, 0x7c, 0x23, 0x8b, 0xbe, 0x0e, 0x35, 0x40, 0xbe,
  0x34, 0x74, 0xa9, 0xbe, 0x84, 0x5f, 0xce, 0xbd, 0xe0, 0x47, 0x53, 0xbe,
  0xab, 0x00, 0x98, 0xbe, 0xab, 0x27, 0xa4, 0x3e, 0xc1, 0x69, 0xf2, 0xbd,
  0xb3, 0xde, 0x0d, 0x3d, 0x62, 0x4e, 0x33, 0xbd, 0x01, 0x47, 0xf9, 0x3b,
  0xe3, 0x2c, 0x56, 0xbd, 0xcb, 0xea, 0xb9, 0x3d, 0xb5, 0x05, 0x53, 0xbd,
  0x21, 0x33, 0xfc, 0x3c, 0x58, 0xba, 0x85, 0x3c, 0x1c, 0x9a, 0xbd, 0xbc,
  0xca, 0x3c, 0x92, 0xbd, 0x02, 0xa0, 0x01, 0x3e, 0x7b, 0x09, 0xd3, 0xbd,
  0x8c, 0xc6, 0x0a, 0xbd, 0xe5, 0xb8, 0x39, 0xbd, 0x56, 0x74, 0xb8, 0xbc,
  0x28, 0x82, 0x82, 0xbc, 0xb7, 0xee, 0xef, 0xbc, 0x63, 0xd2, 0x72, 0x3d,
  0xe2, 0xc9, 0x02, 0xbe, 0x9d, 0x77, 0x5f, 0x3d, 0x54, 0x07, 0xf5, 0xbd,
  0x91, 0x27, 0x97, 0x3d, 0x74, 0x5b, 0xf1, 0x3c, 0x09, 0xee, 0xb0, 0xbc,
  0x7b, 0xb4, 0xa4, 0xbd, 0xf3, 0x47, 0xe5, 0x3d, 0x88, 0xe6, 0x11, 0xbd,
  0x4f, 0x62, 0x93, 0xbd, 0xce, 0x5e, 0x03, 0x3d, 0x6b, 0x07, 0xb7, 0xbc,
  0x78, 0x04, 0x0b, 0xbe, 0x5f, 0x91, 0xac, 0xbd, 0x42, 0xfa, 0x16, 0xbd,
  0x32, 0x96, 0x9a, 0x3d, 0xa8, 0x7e, 0xa5, 0x3c, 0x0f, 0xd6, 0xb6, 0x3d,
  0x1a, 0x7d, 0x47, 0x3d, 0x88, 0xfb, 0x1b, 0x3c, 0x1a, 0xf8, 0x34, 0xbe,
  0x17, 0xdb, 0xaa, 0x3d, 0x09, 0x38, 0xf4, 0xbd, 0x9a, 0x21, 0x81, 0xbc,
  0x79, 0xa5, 0xe7, 0xb9, 0xc3, 0xe2, 0x7f, 0xbd, 0xcb, 0x0c, 0x9b, 0xbc,
  0x20, 0x1e, 0x05, 0x3e, 0xa6, 0x24, 0x87, 0x3d, 0x5f, 0xf1, 0x1a, 0xbe,
  0x24, 0xd8, 0x9c, 0x3c, 0x2b, 0x22, 0x38, 0x3d, 0x6d, 0x4a, 0x1b, 0x3d,
  0x75, 0x67, 0xf5, 0xbd, 0x43, 0x74, 0x81, 0x3d, 0xc3, 0x35, 0x51, 0xbc,
  0xc5, 0x27, 0x85, 0xbd, 0x22, 0xc6, 0x05, 0x3c, 0x18, 0x4a, 0x87, 0x3d,
  0x78, 0xff, 0x99, 0xbc, 0xaa, 0x1e, 0x8c, 0xbd, 0xd1, 0x2a, 0x44, 0xbd,
  0xe0, 0x34, 0x0d, 0xbe, 0x13, 0x13, 0x78, 0xbd, 0x57, 0x4d, 0x24, 0x3c,
  0x12, 0xe2, 0x5b, 0xbc, 0x75, 0x2e, 0x48, 0xbc, 0x85, 0x9a, 0xa6, 0xbd,
  0xa5, 0xdb, 0x33, 0x3d, 0xe3, 0x6f, 0x9e, 0x3c, 0xb2, 0x2d, 0x6e, 0xbc,
  0xa3, 0x14, 0xa7, 0x3c, 0xdd, 0x0b, 0x82, 0x3d, 0x63, 0x53, 0x36, 0x3d,
  0x49, 0x83, 0x62, 0xbd, 0xde, 0xac, 0x08, 0x3d, 0xe6, 0x1a, 0x8a, 0x3c,
  0x98, 0xe7, 0x16, 0xbc, 0x6f, 0xc7, 0xbd, 0x3d, 0x43, 0x7d, 0xa8, 0xbd,
  0x56, 0x1a, 0xb5, 0x3c, 0xd4, 0x3b, 0x83, 0xbd, 0xff, 0xc6, 0xd8, 0xbd,
  0xf9, 0x89, 0xab, 0x3d, 0x9f, 0x5f, 0x15, 0x3d, 0x6e, 0x9e, 0x73, 0x3b,
  0xc1, 0x37, 0x8f, 0x3d, 0x98, 0x68, 0x9a, 0xbd, 0x3b, 0x88, 0x74, 0xbd,
  0x84, 0x53, 0x9d, 0xbc, 0x3b, 0x5d, 0xaa, 0x3b, 0x05, 0x89, 0x2c, 0x3d,
  0x72, 0x76, 0x15, 0xbe, 0x14, 0xf1, 0xe0, 0xbd, 0x0e, 0x9d, 0xea, 0x3c,
  0xa9, 0x3a, 0x52, 0xbd, 0x2f, 0x6c, 0xd7, 0xbd, 0xe8, 0xfa, 0xaf, 0xbd,
  0xbf, 0xb7, 0xb8, 0x3d, 0x71, 0x73, 0x7c, 0xbd, 0x53, 0xa6, 0x07, 0xbe,
  0x85, 0xd6, 0xd3, 0xbc, 0x56, 0x50, 0x33, 0xb8, 0xd3, 0x31, 0xe8, 0xbd,
  0x6e, 0xdc, 0xc9, 0x3d, 0xfb, 0x37, 0x16, 0x3d, 0xba, 0x68, 0xfe, 0x3d,
  0x80, 0x8c, 0x0a, 0xbe, 0x4f, 0x3b, 0xb1, 0x3d, 0x86, 0xe1, 0x0f, 0xbd,
  0x66, 0x2a, 0x5b, 0x3d, 0x24, 0xc5, 0x07, 0xbe, 0x58, 0xfd, 0xea, 0xbd,
  0xbf, 0xcd, 0x71, 0x3c, 0xb2, 0x02, 0xa0, 0xbb, 0x07, 0xe0, 0xf0, 0x3d,
  0x1d, 0xa3, 0x8b, 0xbd, 0x77, 0x32, 0xd0, 0x3d, 0x7d, 0xf6, 0x3b, 0x3e,
  0x06, 0xc4, 0x5d, 0x3d, 0x34, 0xc2, 0x55, 0x3e, 0xa7, 0x93, 0x1c, 0x3e,
  0xc2, 0xd6, 0x27, 0x3e, 0xb3, 0x08, 0x91, 0x3d, 0x15, 0xcc, 0x95, 0x3c,
  0xb3, 0xac, 0xa7, 0x3d, 0xfc, 0x60, 0x68, 0x3e, 0xea, 0x69, 0x3d, 0x3d,
  0x4a, 0xc3, 0x8b, 0xbe, 0x32, 0x68, 0x73, 0x3d, 0x8f, 0xef, 0x87, 0x3e,
  0x08, 0xc9, 0xfc, 0x3d, 0x42, 0xd8, 0xd2, 0x3c, 0xe7, 0x97, 0x85, 0x3d,
  0x4d, 0xae, 0x77, 0x3d, 0x46, 0x2a, 0xa0, 0x3d, 0x9c, 0xdb, 0xfa, 0x3d,
  0xf9, 0x36, 0x59, 0x3e, 0x58, 0x69, 0x47, 0x3e, 0x00, 0x1d, 0x30, 0x3e,
  0x1f, 0xa2, 0x4c, 0x3d, 0x1b, 0x42, 0xcc, 0xbc, 0x57, 0x71, 0xcb, 0xbc,
  0xb9, 0x48, 0xb5, 0x3b, 0xb3, 0x6e, 0x2b, 0xbd, 0xd4, 0x57, 0xe9, 0x3d,
  0x77, 0x42, 0xff, 0x3d, 0xba, 0x27, 0x21, 0x3e, 0x36, 0xef, 0x04, 0xbd,
  0x07, 0x29, 0x4b, 0x3e, 0x9a, 0xe6, 0x95, 0x3e, 0xc6, 0xf6, 0x40, 0x3d,
  0xfe, 0x0a, 0x80, 0x3e, 0x11, 0xaa, 0x03, 0x3e, 0x6b, 0x3f, 0x3a, 0x3e,
  0x93, 0x70, 0x61, 0x3e, 0x51, 0x3d, 0x0c, 0x3e, 0x59, 0x91, 0x2e, 0xbe,
  0xd0, 0xf6, 0x30, 0x3d, 0x30, 0x66, 0x92, 0x3d, 0x63, 0xae, 0xbd, 0xbd,
  0x12, 0x3c, 0xe8, 0x3d, 0xf0, 0xb2, 0x6a, 0x3e, 0x42, 0x1a, 0x6d, 0x3e,
  0x18, 0x82, 0x84, 0x3c, 0x9d, 0x8e, 0x2a, 0x3e, 0x0f, 0x9f, 0x8f, 0x3e,
  0xd8, 0x1a, 0x1e, 0x3e, 0x8d, 0xfb, 0x3f, 0x3e, 0x7f, 0x56, 0xa5, 0x3d,
  0x87, 0xb8, 0x3e, 0x3d, 0x60, 0xfe, 0x3d, 0x3e, 0x89, 0xd1, 0xb5, 0x3d,
  0x79, 0x78, 0x96, 0xbc, 0xf2, 0x09, 0xb1, 0x3c, 0x73, 0x25, 0xe3, 0xbc,
  0x7b, 0x35, 0x0f, 0xbe, 0x57, 0xc8, 0x1d, 0x3e, 0x47, 0x18, 0x34, 0x3e,
  0x0e, 0x67, 0x93, 0x3e, 0x50, 0xa6, 0xe6, 0x3d, 0x57, 0x5a, 0x62, 0x3e,
  0xbc, 0xc6, 0xa2, 0x3d, 0x8d, 0x2b, 0x54, 0x3e, 0x1a, 0x8b, 0x30, 0x3e,
  0x46, 0x8c, 0x07, 0x3d, 0x2b, 0xa6, 0x1f, 0x3d, 0x86, 0x8b, 0x2f, 0x3e,
  0x60, 0xe6, 0x77, 0x3d, 0xbf, 0xe8, 0x1e, 0xbe, 0x49, 0x53, 0x3d, 0x3e,
  0x1e, 0x0a, 0xe5, 0x3d, 0xc3, 0x6c, 0x98, 0xbd, 0x12, 0x05, 0x34, 0x3e,
  0x80, 0x98, 0xed, 0x3d, 0x9e, 0x71, 0x10, 0x3e, 0x61, 0xf6, 0x80, 0xbd,
  0xc8, 0x86, 0x6b, 0x3e, 0x67, 0xc9, 0x2e, 0x3e, 0x92, 0x9f, 0xd2, 0x3d,
  0xdf, 0xc0, 0x38, 0x3d, 0xc5, 0xba, 0x38, 0x3d, 0xba, 0x5c, 0xf7, 0x3d,
  0x9a, 0xd2, 0x32, 0x3e, 0xd7, 0x73, 0x72, 0x3d, 0x06, 0xc6, 0x63, 0x3d,
  0x6a, 0xbb, 0x22, 0x3e, 0x15, 0x71, 0x9d, 0xbc, 0x12, 0xbb, 0xee, 0xbc,
  0x8b, 0xc5, 0x92, 0xbd, 0x8e, 0xfd, 0x40, 0x3e, 0xaf, 0x43, 0x1b, 0x3e,
  0x88, 0x99, 0x2a, 0x3d, 0xe9, 0x76, 0x08, 0x3e, 0x80, 0x9b, 0xa8, 0x3e,
  0xbe, 0x98, 0x03, 0x3c, 0xb3, 0xe8, 0x61, 0x3e, 0xc9, 0x5b, 0xd7, 0x3d,
  0x43, 0x24, 0x5a, 0x3e, 0x1a, 0xfc, 0x00, 0x3e, 0x1f, 0x2b, 0x2e, 0x3e,
  0x77, 0x38, 0x7f, 0x3a, 0x29, 0x6f, 0x95, 0x3e, 0x21, 0x60, 0xe4, 0x3d,
  0xf3, 0x0e, 0x36, 0xbd, 0x5d, 0xcf, 0x91, 0xbd, 0xd5, 0x4e, 0x7b, 0x3e,
  0x1f, 0xb4, 0x8f, 0x3d, 0xda, 0xd9, 0x6b, 0x3d, 0xaa, 0x56, 0x8b, 0xbe,
  0xc0, 0xfc, 0x00, 0xbe, 0xeb, 0xe6, 0x63, 0xbe, 0x5b, 0x84, 0x6e, 0xbe,
  0xff, 0xbb, 0x00, 0xbe, 0x25, 0x51, 0x4e, 0xbe, 0xd6, 0x08, 0xec, 0xbd,
  0xd2, 0xec, 0x38, 0xbe, 0x1c, 0x32, 0xc2, 0x3d, 0x2e, 0x57, 0x80, 0xbe,
  0xb3, 0xc9, 0x3e, 0xbd, 0x89, 0x5b, 0x77, 0xbd, 0x56, 0xfb, 0x83, 0x3d,
  0x15, 0x1b, 0xa6, 0xbd, 0x7e, 0xd1, 0x05, 0xbe, 0xad, 0xa5, 0x62, 0x3d,
  0xf2, 0xb7, 0x39, 0xbe, 0x75, 0x30, 0x6f, 0xbe, 0x5f, 0x7e, 0x6f, 0xbe,
  0x1b, 0x40, 0x14, 0xbd, 0x78, 0x2a, 0x21, 0xbe, 0xd8, 0x46, 0x59, 0xbe,
  0x4c, 0xe9, 0x5e, 0xbe, 0x9a, 0x7b, 0x18, 0xbd, 0xca, 0x8f, 0xae, 0x3c,
  0x01, 0x13, 0x1d, 0xbe, 0x57, 0x84, 0xd8, 0x3d, 0xaf, 0xbf, 0x75, 0xbd,
  0x82, 0x8a, 0x08, 0x3e, 0xbb, 0x49, 0x4e, 0xbe, 0xc3, 0xde, 0x64, 0xbb,
  0x9e, 0xb5, 0xb1, 0x3d, 0xf4, 0xbc, 0x53, 0xbe, 0x08, 0xaa, 0x06, 0xbe,
  0x1e, 0xe3, 0x2d, 0xbe, 0xe2, 0x78, 0xef, 0xbd, 0xc3, 0xf9, 0x0f, 0xbd,
  0xb1, 0x1a, 0x02, 0xbe, 0xbb, 0x90, 0x87, 0xbd, 0xf9, 0x25, 0x1c, 0xbe,
  0x22, 0x1f, 0x09, 0x3c, 0x03, 0xd5, 0x42, 0xbe, 0xbf, 0xfd, 0xb9, 0x3d,
  0xc0, 0x58, 0x67, 0x3d, 0x76, 0x6c, 0xbb, 0x3d, 0xa7, 0x28, 0xf4, 0xbd,
  0xe7, 0x4f, 0x15, 0xbe, 0x68, 0x90, 0x2d, 0x3e, 0xd9, 0x64, 0xc9, 0xbd,
  0xc0, 0x66, 0x3d, 0xbe, 0xed, 0x42, 0x49, 0xbe, 0x44, 0x84, 0xaf, 0xbd,
  0xbb, 0xfb, 0x1d, 0xbe, 0x37, 0x25, 0x0f, 0xbe, 0x41, 0x24, 0xb1, 0xbd,
  0x03, 0x4d, 0x75, 0xbe, 0x4b, 0xa9, 0x04, 0xbe, 0x09, 0xfa, 0xa6, 0xbd,
  0x03, 0x21, 0x22, 0x3d, 0x48, 0x85, 0xf5, 0xbc, 0x10, 0x85, 0xc1, 0x3d,
  0x05, 0x38, 0x1e, 0xbb, 0xf6, 0xa4, 0x33, 0xbd, 0xe5, 0x5e, 0x4f, 0x3e,
  0xce, 0x36, 0xf7, 0xbd, 0xf2, 0xfe, 0xb4, 0xbd, 0x0d, 0xb9, 0x3e, 0xbe,
  0x24, 0xc4, 0x14, 0xbe, 0x55, 0xc6, 0x17, 0x3b, 0xbe, 0x73, 0x4a, 0xbe,
  0x15, 0x58, 0x2c, 0xbe, 0x16, 0x9a, 0x25, 0xbe, 0x4c, 0x63, 0x96, 0x3d,
  0x94, 0x66, 0x9b, 0xbe, 0x2d, 0xc9, 0xb9, 0x3d, 0xa0, 0x73, 0x1a, 0x3e,
  0xdc, 0x74, 0x92, 0x3c, 0x52, 0x07, 0x35, 0xbe, 0xc6, 0xda, 0x0e, 0xbe,
  0x6e, 0xab, 0xb6, 0x3b, 0xbf, 0x5f, 0x0b, 0xbe, 0x6e, 0x8c, 0xc4, 0xbd,
  0xfa, 0xf5, 0x1c, 0xbe, 0x88, 0x38, 0xd7, 0xbd, 0xe3, 0xe7, 0x1a, 0xbd,
  0xa5, 0xa8, 0x20, 0xbe, 0x4d, 0xa5, 0x30, 0xbd, 0x73, 0x9a, 0x9a, 0xbe,
  0x7f, 0xe3, 0x93, 0x3d, 0x82, 0x56, 0xe1, 0xbd, 0x28, 0x8d, 0x83, 0x3d,
  0x09, 0xee, 0x57, 0x3d, 0x76, 0xf8, 0x1c, 0x3e, 0xfe, 0x6c, 0x09, 0xbe,
  0x22, 0x7a, 0x48, 0xbe, 0x6b, 0xe2, 0xd8, 0x3d, 0x55, 0xd0, 0x44, 0xbe,
  0x75, 0xde, 0x8e, 0xbb, 0xd7, 0xb7, 0x52, 0xbe, 0x36, 0x63, 0x42, 0xbe,
  0x7b, 0xe4, 0x49, 0xbd, 0x9d, 0x5f, 0x8e, 0xbe, 0x5e, 0x4c, 0x30, 0xbe,
  0x00, 0x59, 0x60, 0xbe, 0x5e, 0x8a, 0xde, 0x3c, 0xd6, 0x18, 0x41, 0xbe,
  0x8d, 0x1b, 0x3a, 0x3d, 0x76, 0x4b, 0xd6, 0x3d, 0x6b, 0x5f, 0x8b, 0x3d,
  0xc0, 0xae, 0xaa, 0xbd, 0x53, 0x64, 0xb9, 0xbd, 0xf7, 0x46, 0x2f, 0x3c,
  0x78, 0xe7, 0x89, 0x3e, 0xa4, 0x76, 0x11, 0x3e, 0x4d, 0x34, 0x5c, 0xbd,
  0xaa, 0x78, 0x2c, 0x3e, 0xdb, 0xa5, 0x56, 0x3e, 0xe2, 0x5f, 0x27, 0x3e,
  0x9a, 0x6a, 0x2b, 0x3e, 0x3b, 0xd3, 0xc3, 0x3c, 0x64, 0xc8, 0x3a, 0xbc,
  0xa7, 0xe0, 0xde, 0x3d, 0x18, 0x0e, 0x9d, 0xbd, 0x17, 0x8d, 0xcc, 0xbd,
  0x77, 0xeb, 0xa6, 0xbb, 0xa3, 0x87, 0xd0, 0x3d, 0x61, 0xe0, 0x62, 0x3c,
  0xad, 0x25, 0xac, 0xbd, 0x54, 0x04, 0x2f, 0x3e, 0x07, 0xfa, 0xda, 0x3d,
  0xc5, 0x59, 0xf0, 0x3d, 0x27, 0xe8, 0xdc, 0x3d, 0x9d, 0xad, 0x9d, 0x3e,
  0xc6, 0x48, 0x46, 0x3e, 0x34, 0xae, 0x0a, 0x3e, 0x3d, 0x65, 0xe0, 0x3c,
  0xf2, 0x4f, 0xc2, 0x3d, 0x41, 0xf3, 0x74, 0x3e, 0xa6, 0x4c, 0xd5, 0xbd,
  0x77, 0x97, 0x64, 0xbd, 0x8c, 0x16, 0x9e, 0x3d, 0x90, 0x20, 0x89, 0x3e,
  0x59, 0xfd, 0x06, 0x3e, 0x02, 0x70, 0xcf, 0xbc, 0x40, 0x3c, 0x1e, 0x3e,
  0x97, 0x19, 0x4b, 0x3e, 0x1a, 0x5d, 0x29, 0x3e, 0x19, 0xa6, 0x26, 0x3d,
  0xc2, 0x99, 0x64, 0x3e, 0x4b, 0xa5, 0x9a, 0x3e, 0xea, 0x3f, 0x85, 0x3e,
  0xbe, 0x2f, 0x0d, 0x3d, 0xa5, 0xb1, 0x15, 0xbd, 0xa6, 0x94, 0x45, 0x3d,
  0xa2, 0xa6, 0x0c, 0x3e, 0x23, 0x42, 0x80, 0xbe, 0xec, 0xe9, 0xce, 0x3d,
  0x46, 0x4f, 0x90, 0x3e, 0x0a, 0x81, 0x13, 0x3e, 0xb7, 0x80, 0x13, 0x3c,
  0x6d, 0xdc, 0x9a, 0x3e, 0x3c, 0xec, 0x2e, 0x3e, 0xde, 0xf1, 0x72, 0x3d,
  0x57, 0xc5, 0x01, 0x3e, 0x41, 0xe2, 0x47, 0x3e, 0xd8, 0xaf, 0x3a, 0x3e,
  0x4f, 0x32, 0xd8, 0x3c, 0xb0, 0x65, 0xd6, 0x3d, 0x1f, 0x8d, 0xa1, 0xbc,
  0x26, 0x81, 0x78, 0x3e, 0xf7, 0x31, 0x9a, 0x3d, 0xbb, 0x7a, 0xd0, 0xbd,
  0xf1, 0x18, 0x0a, 0x3e, 0xac, 0x17, 0x29, 0x3e, 0x08, 0x30, 0x4a, 0x3e,
  0xb6, 0xaa, 0xfe, 0x3c, 0x71, 0xa6, 0x82, 0x3e, 0x9d, 0xbb, 0x44, 0x3e,
  0xb8, 0x5e, 0x77, 0xbb, 0x83, 0xc6, 0x06, 0x3e, 0x71, 0x95, 0x1a, 0x3e,
  0x0c, 0x01, 0xef, 0x3d, 0xd0, 0xea, 0xd6, 0x3d, 0x96, 0x08, 0xc1, 0x3c,
  0xf7, 0x31, 0xb5, 0x3c, 0xf7, 0xcb, 0xc5, 0x3d, 0x9b, 0xff, 0x53, 0x3d,
  0x67, 0x86, 0x26, 0xbe, 0x3d, 0x3d, 0xc3, 0x3d, 0x04, 0xed, 0xde, 0x3d,
  0xbd, 0xec, 0xb3, 0x3d, 0x94, 0xd4, 0x0e, 0xbd, 0x92, 0x69, 0x0e, 0x3e,
  0xce, 0xb0, 0x45, 0x3e, 0x94, 0xe6, 0xe8, 0x3d, 0x83, 0x11, 0x18, 0x3e,
  0x79, 0x4c, 0x56, 0x3e, 0xca, 0x5e, 0x07, 0x3e, 0x04, 0xfd, 0x67, 0x3e,
  0x5d, 0xc4, 0x34, 0x3e, 0x9b, 0x29, 0xbc, 0xbb, 0xeb, 0xc2, 0x3e, 0x3e,
  0x9b, 0xb5, 0x16, 0x3d, 0x84, 0x9b, 0xc6, 0xbd, 0x4d, 0x4c, 0xf9, 0xbc,
  0xe4, 0xaf, 0x52, 0x3e, 0x9f, 0xf3, 0x51, 0x3e, 0x49, 0x71, 0xcf, 0x3d,
